{"sizes":[100,50,3],"layers":[{"0":{},"1":{},"2":{},"3":{},"4":{},"5":{},"6":{},"7":{},"8":{},"9":{},"10":{},"11":{},"12":{},"13":{},"14":{},"15":{},"16":{},"17":{},"18":{},"19":{},"20":{},"21":{},"22":{},"23":{},"24":{},"25":{},"26":{},"27":{},"28":{},"29":{},"30":{},"31":{},"32":{},"33":{},"34":{},"35":{},"36":{},"37":{},"38":{},"39":{},"40":{},"41":{},"42":{},"43":{},"44":{},"45":{},"46":{},"47":{},"48":{},"49":{},"50":{},"51":{},"52":{},"53":{},"54":{},"55":{},"56":{},"57":{},"58":{},"59":{},"60":{},"61":{},"62":{},"63":{},"64":{},"65":{},"66":{},"67":{},"68":{},"69":{},"70":{},"71":{},"72":{},"73":{},"74":{},"75":{},"76":{},"77":{},"78":{},"79":{},"80":{},"81":{},"82":{},"83":{},"84":{},"85":{},"86":{},"87":{},"88":{},"89":{},"90":{},"91":{},"92":{},"93":{},"94":{},"95":{},"96":{},"97":{},"98":{},"99":{}},{"0":{"bias":-0.03768361732363701,"weights":{"0":-0.174627423286438,"1":-0.19195237755775452,"2":0.1426297277212143,"3":0.003816027659922838,"4":-0.0727212131023407,"5":-0.12383492290973663,"6":-0.16968302428722382,"7":0.18147417902946472,"8":-0.14513222873210907,"9":-0.06582435965538025,"10":0.042764972895383835,"11":0.01983810029923916,"12":-0.17807608842849731,"13":-0.016372915357351303,"14":0.10753173381090164,"15":0.06451388448476791,"16":-0.03866453468799591,"17":-0.15442442893981934,"18":-0.13878263533115387,"19":-0.174115851521492,"20":0.18472744524478912,"21":-0.08519528061151505,"22":-0.08026070892810822,"23":0.04888591542840004,"24":0.047786492854356766,"25":0.11960888653993607,"26":-0.10232368111610413,"27":0.15215472877025604,"28":-0.10992337763309479,"29":0.15277373790740967,"30":-0.09312443435192108,"31":-0.0033999569714069366,"32":-0.13445839285850525,"33":-0.19733402132987976,"34":0.03155131638050079,"35":0.18967169523239136,"36":-0.18515056371688843,"37":-0.13516193628311157,"38":0.12941618263721466,"39":-0.07991573214530945,"40":0.11912230402231216,"41":0.08168971538543701,"42":-0.05728740990161896,"43":-0.005243756342679262,"44":-0.18905109167099,"45":-0.14241963624954224,"46":0.09418804943561554,"47":-0.13581033051013947,"48":0.12594376504421234,"49":0.040806327015161514,"50":-0.052913226187229156,"51":-0.1907491683959961,"52":0.14380556344985962,"53":-0.06155138090252876,"54":0.15622712671756744,"55":-0.08065669238567352,"56":0.04532773792743683,"57":-0.19188572466373444,"58":-0.14989721775054932,"59":0.03502738103270531,"60":0.04625147953629494,"61":-0.06448138505220413,"62":0.036058209836483,"63":-0.0897173210978508,"64":0.17394408583641052,"65":-0.08537936210632324,"66":0.10987410694360733,"67":-0.06459827721118927,"68":-0.017259331420063972,"69":-0.044493574649095535,"70":-0.11225629597902298,"71":-0.08608654886484146,"72":-0.18964385986328125,"73":0.018541425466537476,"74":-0.17542095482349396,"75":-0.014601060189306736,"76":-0.1729368269443512,"77":-0.18953251838684082,"78":0.13237562775611877,"79":0.10729105025529861,"80":0.04131162539124489,"81":-0.015087200328707695,"82":0.19662334024906158,"83":0.027668993920087814,"84":-0.11769348382949829,"85":0.16833285987377167,"86":0.11555518954992294,"87":0.12082967907190323,"88":0.1758396327495575,"89":0.1230272576212883,"90":-0.1219920963048935,"91":-0.006714325398206711,"92":-0.18679501116275787,"93":-0.06977134197950363,"94":-0.17141582071781158,"95":-0.15692943334579468,"96":0.013279998674988747,"97":0.15302038192749023,"98":-0.11308103799819946,"99":0.1353553980588913}},"1":{"bias":0.1620398610830307,"weights":{"0":0.0606643445789814,"1":0.07377634942531586,"2":0.11773790419101715,"3":0.1981232613325119,"4":0.08801907300949097,"5":0.08363340049982071,"6":-0.10951048135757446,"7":-0.027424054220318794,"8":0.16519105434417725,"9":-0.07455724477767944,"10":0.1891482174396515,"11":-0.03263306990265846,"12":0.026522912085056305,"13":0.14022031426429749,"14":0.0850423127412796,"15":-0.07542259246110916,"16":-0.18164652585983276,"17":0.028807833790779114,"18":-0.041991204023361206,"19":0.10916595906019211,"20":-0.05272475630044937,"21":0.057984162122011185,"22":-0.03310823440551758,"23":0.09792238473892212,"24":-0.08029879629611969,"25":0.01028857659548521,"26":-0.09111667424440384,"27":0.1996229887008667,"28":0.002025677589699626,"29":0.13817545771598816,"30":0.10189695656299591,"31":0.1506049484014511,"32":-0.14036978781223297,"33":0.11153184622526169,"34":0.02195478044450283,"35":0.03182252496480942,"36":0.08064734935760498,"37":0.07599791884422302,"38":-0.077751025557518,"39":0.07997436076402664,"40":-0.16626133024692535,"41":0.07014615088701248,"42":0.07510645687580109,"43":0.15656599402427673,"44":0.009230933152139187,"45":0.08836068212985992,"46":-0.029368732124567032,"47":0.1489463597536087,"48":-0.11868990957736969,"49":-0.09619320929050446,"50":0.01796584203839302,"51":-0.023978058248758316,"52":-0.1113661527633667,"53":-0.1658918559551239,"54":0.19316957890987396,"55":-0.0036821886897087097,"56":-0.07828336954116821,"57":0.18038833141326904,"58":0.1837596297264099,"59":-0.09605741500854492,"60":0.15595462918281555,"61":0.008314607664942741,"62":0.09385702759027481,"63":-0.05986389145255089,"64":-0.1450309157371521,"65":-0.10103993862867355,"66":-0.07771003246307373,"67":-0.09163007140159607,"68":0.06500982493162155,"69":0.14357510209083557,"70":0.03818444162607193,"71":-0.191984623670578,"72":0.10007424652576447,"73":0.098229318857193,"74":-0.13116618990898132,"75":-0.007670526392757893,"76":0.10349836200475693,"77":-0.012157507240772247,"78":-0.01571347564458847,"79":-0.16567274928092957,"80":-0.04154849052429199,"81":0.09577685594558716,"82":-0.07984451204538345,"83":-0.0965062752366066,"84":-0.15754614770412445,"85":0.06907978653907776,"86":-0.15192674100399017,"87":-0.1687648743391037,"88":-0.15350693464279175,"89":0.17928603291511536,"90":0.16747267544269562,"91":0.14829491078853607,"92":0.12504984438419342,"93":-0.15050669014453888,"94":0.03649694472551346,"95":-0.16714802384376526,"96":0.044405996799468994,"97":-0.1001732274889946,"98":0.19026599824428558,"99":-0.014437209814786911}},"2":{"bias":-0.17673243582248688,"weights":{"0":0.09503000974655151,"1":0.17590686678886414,"2":-0.024962086230516434,"3":-0.09516330063343048,"4":-0.013643276877701283,"5":-0.0756969302892685,"6":-0.13966825604438782,"7":0.009511788375675678,"8":-0.17447622120380402,"9":0.13269606232643127,"10":-0.10311033576726913,"11":-0.07319451868534088,"12":0.16735319793224335,"13":0.14186018705368042,"14":0.08403383940458298,"15":0.06036348268389702,"16":-0.02731168456375599,"17":0.037932246923446655,"18":0.00910002738237381,"19":0.1613101214170456,"20":0.053877025842666626,"21":-0.008694581687450409,"22":-0.16195209324359894,"23":-0.08191229403018951,"24":-0.1913987547159195,"25":0.05240222439169884,"26":0.1886797845363617,"27":-0.15789204835891724,"28":-0.10313564538955688,"29":0.005674530752003193,"30":-0.12106472253799438,"31":-0.12729257345199585,"32":-0.07364775985479355,"33":0.19199249148368835,"34":-0.013093995861709118,"35":-0.06360333412885666,"36":0.09791765362024307,"37":-0.015448983758687973,"38":0.14319810271263123,"39":-0.09143520891666412,"40":-0.09323392063379288,"41":-0.12389925122261047,"42":-0.020225919783115387,"43":-0.10863673686981201,"44":0.12286637723445892,"45":-0.08914890140295029,"46":-0.17690999805927277,"47":-0.18315164744853973,"48":-0.11556682735681534,"49":-0.16696657240390778,"50":-0.042115241289138794,"51":-0.07543160766363144,"52":0.04700237512588501,"53":0.14314915239810944,"54":0.09125318378210068,"55":-0.16773204505443573,"56":0.10986418277025223,"57":0.01007287111133337,"58":0.009567284025251865,"59":-0.030075496062636375,"60":0.16388803720474243,"61":0.0865774154663086,"62":0.05181918665766716,"63":-0.15687446296215057,"64":0.05635065212845802,"65":0.1060396358370781,"66":0.029111050069332123,"67":0.13293205201625824,"68":-0.15796639025211334,"69":0.1763329803943634,"70":0.08385752886533737,"71":0.0004536524647846818,"72":-0.17635324597358704,"73":-0.13201063871383667,"74":0.05065209046006203,"75":-0.1600518673658371,"76":-0.04658031836152077,"77":-0.010311623103916645,"78":-0.06492102891206741,"79":0.11744194477796555,"80":0.16093425452709198,"81":-0.05447055771946907,"82":-0.1480729877948761,"83":-0.14139913022518158,"84":0.19558049738407135,"85":-0.07193239033222198,"86":0.07491324096918106,"87":0.08623120188713074,"88":0.2010589838027954,"89":-0.04189144819974899,"90":0.10062999278306961,"91":0.0024757233913987875,"92":-0.10349415242671967,"93":-0.09246016293764114,"94":-0.020610881969332695,"95":0.025409411638975143,"96":-0.18058399856090546,"97":0.06227748841047287,"98":0.12088221311569214,"99":0.039527904242277145}},"3":{"bias":0.1454342156648636,"weights":{"0":-0.09262250363826752,"1":0.18319015204906464,"2":0.10450081527233124,"3":0.1796397715806961,"4":-0.14709384739398956,"5":-0.1415451020002365,"6":0.024296019226312637,"7":0.13043007254600525,"8":0.10300905257463455,"9":-0.19882561266422272,"10":-0.0960848480463028,"11":-0.17162470519542694,"12":0.08717069774866104,"13":-0.13470645248889923,"14":-0.09809626638889313,"15":0.13657641410827637,"16":0.1691948026418686,"17":0.1375439316034317,"18":0.02112629823386669,"19":0.16838186979293823,"20":-0.029551198706030846,"21":-0.03643982112407684,"22":-0.10555952042341232,"23":-0.08875644952058792,"24":0.06391637772321701,"25":-0.05063077062368393,"26":0.03997667506337166,"27":0.008007779717445374,"28":0.07691127061843872,"29":-0.06314165145158768,"30":-0.025035347789525986,"31":-0.06096407398581505,"32":-0.15546363592147827,"33":-0.1904582530260086,"34":-0.017995337024331093,"35":-0.15811212360858917,"36":-0.09376197308301926,"37":-0.1530895084142685,"38":0.08305926620960236,"39":-0.15259186923503876,"40":0.15907996892929077,"41":-0.1265295147895813,"42":0.0110258087515831,"43":-0.15205641090869904,"44":-0.025252841413021088,"45":-0.01249824557453394,"46":0.09849028289318085,"47":-0.15217934548854828,"48":-0.20032542943954468,"49":0.15791872143745422,"50":0.19092999398708344,"51":-0.009352645836770535,"52":0.13535813987255096,"53":-0.12520954012870789,"54":-0.07656429708003998,"55":-0.025433605536818504,"56":0.12412966787815094,"57":0.1104675829410553,"58":-0.12973333895206451,"59":-0.004740830976516008,"60":-0.006697309203445911,"61":-0.0970434620976448,"62":-0.04601573199033737,"63":-0.1256309300661087,"64":0.16465924680233002,"65":0.1285245418548584,"66":-0.18168166279792786,"67":0.060771394520998,"68":-0.08379524946212769,"69":-0.05780400335788727,"70":-0.0009492862736806273,"71":-0.15052951872348785,"72":-0.09810803830623627,"73":-0.033845771104097366,"74":-0.01393622625619173,"75":0.11271803826093674,"76":0.022929051890969276,"77":-0.11511942744255066,"78":0.06932646036148071,"79":0.18829147517681122,"80":-0.09452307969331741,"81":-0.029255256056785583,"82":0.05897378548979759,"83":-0.09284850209951401,"84":-0.03341853246092796,"85":-0.10751758515834808,"86":-0.18247506022453308,"87":-0.07872938364744186,"88":-0.059452593326568604,"89":0.037242304533720016,"90":-0.0791507437825203,"91":-0.11611313372850418,"92":-0.14571744203567505,"93":0.10437413305044174,"94":0.09088896214962006,"95":0.08460481464862823,"96":0.03054807521402836,"97":-0.09383620321750641,"98":0.10783249884843826,"99":0.11202916502952576}},"4":{"bias":-0.0170163344591856,"weights":{"0":-0.04122732952237129,"1":0.006956524681299925,"2":0.020154083147644997,"3":0.16091981530189514,"4":-0.028410233557224274,"5":0.1250903308391571,"6":0.03907584026455879,"7":0.10112196207046509,"8":0.16014038026332855,"9":-0.19282139837741852,"10":-0.008785654790699482,"11":-0.06303458660840988,"12":-0.016687892377376556,"13":-0.040115293115377426,"14":-0.10208195447921753,"15":0.1525314599275589,"16":-0.1884816735982895,"17":-0.11625400930643082,"18":-0.0848308876156807,"19":-0.1380387842655182,"20":0.05130186676979065,"21":0.19403977692127228,"22":0.10805749893188477,"23":0.08161599189043045,"24":0.152572363615036,"25":-0.15083548426628113,"26":-0.009414095431566238,"27":0.02609722688794136,"28":0.046507757157087326,"29":0.05968684330582619,"30":0.08476648479700089,"31":0.18013843894004822,"32":-0.1439976841211319,"33":0.07376033067703247,"34":0.049277178943157196,"35":0.059564534574747086,"36":-0.0009336837683804333,"37":0.1283382773399353,"38":-0.12030059844255447,"39":-0.031101077795028687,"40":-0.08406804502010345,"41":0.1529480367898941,"42":0.038482628762722015,"43":0.07919441908597946,"44":0.03399904817342758,"45":-0.17215535044670105,"46":-0.19351153075695038,"47":-0.18078570067882538,"48":0.10875087231397629,"49":0.06818204373121262,"50":0.08616173267364502,"51":-0.19126683473587036,"52":-0.036883752793073654,"53":-0.06206164136528969,"54":0.1849372833967209,"55":-0.05398339405655861,"56":-0.14778688549995422,"57":0.03032582812011242,"58":-0.1249331682920456,"59":-0.05813099816441536,"60":-0.07190617173910141,"61":-0.11868812143802643,"62":-0.11698353290557861,"63":-0.028085459023714066,"64":-0.11376363784074783,"65":0.13616612553596497,"66":-0.09974239766597748,"67":-0.07891276478767395,"68":-0.11597658693790436,"69":0.03810390457510948,"70":0.10742609202861786,"71":-0.14992357790470123,"72":-0.02825069986283779,"73":0.039024826139211655,"74":-0.025319792330265045,"75":-0.14240631461143494,"76":0.024356722831726074,"77":-0.07690810412168503,"78":0.06939776241779327,"79":-0.15378805994987488,"80":-0.06067046523094177,"81":-0.03315654397010803,"82":-0.11529449373483658,"83":0.041308920830488205,"84":0.10251639783382416,"85":-0.14256618916988373,"86":0.09323698282241821,"87":0.06867174059152603,"88":-0.0895972028374672,"89":-0.09661588817834854,"90":0.059381674975156784,"91":-0.09822771698236465,"92":0.0619247704744339,"93":0.096506267786026,"94":-0.02640898898243904,"95":-0.13947437703609467,"96":0.04537757486104965,"97":-0.13204340636730194,"98":-0.15380671620368958,"99":-0.10759786516427994}},"5":{"bias":0.19735682010650635,"weights":{"0":0.009284528903663158,"1":0.012220312841236591,"2":0.1584133356809616,"3":-0.11578959226608276,"4":-0.16296571493148804,"5":-0.03653106465935707,"6":-0.02127128280699253,"7":-0.08776500076055527,"8":0.02690943516790867,"9":-0.026272831484675407,"10":-0.1884765774011612,"11":-0.03478775545954704,"12":-0.06933755427598953,"13":-0.12544335424900055,"14":-0.08344864845275879,"15":0.18676099181175232,"16":-0.1269247978925705,"17":0.13403406739234924,"18":-0.00539204478263855,"19":0.04097006842494011,"20":-0.12656107544898987,"21":0.18492597341537476,"22":-0.02274141274392605,"23":-0.16720956563949585,"24":0.05646061152219772,"25":0.16319426894187927,"26":-0.1549353301525116,"27":-0.12258239835500717,"28":-0.009386446326971054,"29":0.020214755088090897,"30":-0.10146120190620422,"31":-0.03086310625076294,"32":0.16805455088615417,"33":0.06142183020710945,"34":-0.15162259340286255,"35":-0.0929536446928978,"36":0.07546573877334595,"37":0.009147069416940212,"38":0.19188177585601807,"39":0.09797050803899765,"40":0.16855531930923462,"41":0.16781742870807648,"42":0.0198842640966177,"43":0.10618392378091812,"44":-0.14945581555366516,"45":0.11422425508499146,"46":0.04161660373210907,"47":-0.15949854254722595,"48":0.16792254149913788,"49":0.12680429220199585,"50":0.07637115567922592,"51":0.18218663334846497,"52":0.017850134521722794,"53":0.09166397154331207,"54":-0.18030570447444916,"55":-0.1642136126756668,"56":-0.08721226453781128,"57":0.04532407224178314,"58":0.17561140656471252,"59":-0.19754798710346222,"60":-0.16341730952262878,"61":0.18099838495254517,"62":0.04890226572751999,"63":0.07483017444610596,"64":0.06733003258705139,"65":-0.09801983088254929,"66":0.0050519127398729324,"67":-0.15783363580703735,"68":-0.14395001530647278,"69":-0.03214426711201668,"70":-0.07041026651859283,"71":-0.17003962397575378,"72":-0.12250221520662308,"73":0.17671620845794678,"74":0.11324653029441833,"75":0.09507806599140167,"76":0.1624261736869812,"77":-0.060406822711229324,"78":-0.17065493762493134,"79":0.12729370594024658,"80":0.09610934555530548,"81":-0.04022977873682976,"82":0.11319985240697861,"83":0.1598667949438095,"84":-0.14772602915763855,"85":0.02936764620244503,"86":-0.12360209971666336,"87":0.03743042051792145,"88":-0.20213299989700317,"89":-0.027015406638383865,"90":0.06831547617912292,"91":0.09391637146472931,"92":0.12169226258993149,"93":-0.14188770949840546,"94":-0.06410322338342667,"95":0.024113107472658157,"96":0.17439357936382294,"97":-0.022216537967324257,"98":-0.05790858343243599,"99":-0.1624096930027008}},"6":{"bias":-0.07831308990716934,"weights":{"0":-0.08651827275753021,"1":0.005196803715080023,"2":0.07376660406589508,"3":0.10520432889461517,"4":0.13148584961891174,"5":0.1683044284582138,"6":0.06794240325689316,"7":-0.03316812217235565,"8":-0.10782229155302048,"9":0.10663055628538132,"10":0.10446987301111221,"11":0.16394037008285522,"12":-0.11096873879432678,"13":0.16764357686042786,"14":0.07080526649951935,"15":-0.10799355059862137,"16":-0.19660864770412445,"17":0.12249274551868439,"18":0.10396114736795425,"19":0.15116602182388306,"20":-0.18610619008541107,"21":0.0490276999771595,"22":-0.169791117310524,"23":0.11177586019039154,"24":-0.008255819790065289,"25":0.16191324591636658,"26":-0.012018552049994469,"27":0.05235714092850685,"28":0.05885637179017067,"29":-0.029176130890846252,"30":-0.004720941185951233,"31":-0.14856548607349396,"32":-0.19304455816745758,"33":-0.11122183501720428,"34":0.011579537764191628,"35":-0.061399489641189575,"36":-0.09928777813911438,"37":-0.0450337789952755,"38":-0.17282599210739136,"39":-0.1775493025779724,"40":-0.17380391061306,"41":-0.08992765843868256,"42":0.09826638549566269,"43":-0.0008008420700207353,"44":-0.1555277556180954,"45":-0.07671022415161133,"46":0.1348852664232254,"47":-0.03580540791153908,"48":-0.16495352983474731,"49":0.08364735543727875,"50":-0.03996184840798378,"51":-0.19264337420463562,"52":-0.16231611371040344,"53":0.03985835239291191,"54":-0.15018589794635773,"55":-0.08163229376077652,"56":-0.05611525475978851,"57":0.11706589162349701,"58":-0.12077885866165161,"59":0.16306553781032562,"60":0.12181920558214188,"61":0.08892986178398132,"62":0.18286968767642975,"63":0.18931078910827637,"64":-0.19553500413894653,"65":-0.10549592226743698,"66":-0.17943738400936127,"67":-0.09980729222297668,"68":0.08608498424291611,"69":0.12745942175388336,"70":-0.1405181884765625,"71":0.14812549948692322,"72":-0.09859082847833633,"73":0.16535517573356628,"74":-0.10209548473358154,"75":-0.1000070869922638,"76":0.13522201776504517,"77":-0.10348708927631378,"78":-0.14557915925979614,"79":-0.11485806852579117,"80":0.12658672034740448,"81":0.125920370221138,"82":-0.025120655074715614,"83":-0.17068053781986237,"84":0.18802747130393982,"85":-0.002012417884543538,"86":-0.11510898172855377,"87":-0.152420774102211,"88":0.038299549371004105,"89":-0.16605131328105927,"90":0.10259252041578293,"91":-0.040708668529987335,"92":0.17200811207294464,"93":0.07024315744638443,"94":0.1499585509300232,"95":-0.1866501420736313,"96":0.1416396051645279,"97":-0.06006664037704468,"98":-0.15429843962192535,"99":-0.1532781571149826}},"7":{"bias":-0.0037614377215504646,"weights":{"0":0.1131478101015091,"1":-0.002284708898514509,"2":0.19174884259700775,"3":0.08753620833158493,"4":-0.19595551490783691,"5":0.015854395925998688,"6":-0.16006441414356232,"7":0.12725411355495453,"8":-0.000044524858822114766,"9":-0.07496384531259537,"10":-0.15792804956436157,"11":0.043108031153678894,"12":-0.06779661029577255,"13":0.03605227544903755,"14":-0.19161191582679749,"15":0.09317129105329514,"16":-0.08349665999412537,"17":0.05063605681061745,"18":0.09176180511713028,"19":0.19882206618785858,"20":-0.030411595478653908,"21":-0.15353718400001526,"22":0.06969812512397766,"23":-0.04346037656068802,"24":0.0012807917082682252,"25":0.115618035197258,"26":-0.0538446269929409,"27":0.019046995788812637,"28":-0.0507221482694149,"29":0.01730937696993351,"30":-0.13663336634635925,"31":-0.1520339846611023,"32":-0.1020682230591774,"33":0.02471616491675377,"34":-0.07968655973672867,"35":-0.012536982074379921,"36":-0.13999085128307343,"37":-0.05546138063073158,"38":0.06543012708425522,"39":-0.002230880782008171,"40":0.07696855068206787,"41":0.08470792323350906,"42":-0.06426797062158585,"43":0.06645306944847107,"44":-0.03232185170054436,"45":0.08457330614328384,"46":-0.0538666695356369,"47":0.0452459417283535,"48":0.0073579661548137665,"49":-0.010607993230223656,"50":-0.08286911994218826,"51":-0.07901918143033981,"52":0.01518665999174118,"53":0.1453026682138443,"54":0.07787147164344788,"55":-0.15904489159584045,"56":-0.008497405797243118,"57":-0.06677799671888351,"58":-0.1569606512784958,"59":0.17988714575767517,"60":0.13730230927467346,"61":-0.006829542573541403,"62":0.09855855256319046,"63":0.19099535048007965,"64":-0.03424077853560448,"65":-0.14386270940303802,"66":-0.15062899887561798,"67":-0.17312803864479065,"68":0.1356571465730667,"69":0.05936496704816818,"70":-0.07365454733371735,"71":0.008816461078822613,"72":0.12733621895313263,"73":-0.046312082558870316,"74":-0.10444754362106323,"75":-0.12858600914478302,"76":0.15205907821655273,"77":-0.13413195312023163,"78":-0.06007181853055954,"79":-0.009541947394609451,"80":-0.08313515037298203,"81":-0.14333447813987732,"82":0.10173089057207108,"83":-0.14316587150096893,"84":-0.10833612084388733,"85":-0.08290500938892365,"86":0.0711374282836914,"87":-0.04045918583869934,"88":-0.03455888852477074,"89":0.18391941487789154,"90":0.12543323636054993,"91":0.16511660814285278,"92":-0.036027658730745316,"93":0.20176871120929718,"94":-0.07253335416316986,"95":-0.12711282074451447,"96":-0.06626203656196594,"97":-0.1323879063129425,"98":0.18417474627494812,"99":-0.14218565821647644}},"8":{"bias":-0.03098883666098118,"weights":{"0":0.16479161381721497,"1":0.05661320686340332,"2":0.17505522072315216,"3":-0.1630380004644394,"4":0.19008834660053253,"5":0.04332542046904564,"6":-0.17369545996189117,"7":-0.12441003322601318,"8":-0.03416430205106735,"9":-0.15520712733268738,"10":-0.029959218576550484,"11":-0.12063738703727722,"12":0.048806000500917435,"13":0.14499065279960632,"14":0.19355206191539764,"15":-0.19043172895908356,"16":-0.11025476455688477,"17":-0.013442444615066051,"18":0.054255593568086624,"19":0.11499270796775818,"20":0.19794198870658875,"21":0.17387396097183228,"22":0.08321735262870789,"23":0.12381527572870255,"24":-0.17744913697242737,"25":-0.06751523911952972,"26":-0.11851723492145538,"27":0.05008019134402275,"28":-0.07947415858507156,"29":-0.13406233489513397,"30":-0.07319710403680801,"31":-0.15353383123874664,"32":-0.1854494959115982,"33":-0.14942336082458496,"34":-0.18248191475868225,"35":0.12276209890842438,"36":-0.06408878415822983,"37":-0.12434632331132889,"38":0.005340989213436842,"39":0.13622833788394928,"40":-0.18394093215465546,"41":0.17750941216945648,"42":0.1840459257364273,"43":0.062369607388973236,"44":0.012415948323905468,"45":0.09207937121391296,"46":-0.06180959567427635,"47":0.01703035831451416,"48":0.16627678275108337,"49":0.1747364103794098,"50":0.043232083320617676,"51":0.07170284539461136,"52":-0.00022916001034900546,"53":0.17665284872055054,"54":0.016574231907725334,"55":-0.12579360604286194,"56":0.13214203715324402,"57":0.013094295747578144,"58":-0.04383959248661995,"59":-0.00999134685844183,"60":-0.12579385936260223,"61":-0.11142418533563614,"62":-0.12992407381534576,"63":-0.17628036439418793,"64":-0.05209853872656822,"65":0.06264368444681168,"66":0.17863425612449646,"67":-0.19519661366939545,"68":0.19286994636058807,"69":-0.056241028010845184,"70":0.12725313007831573,"71":-0.14903751015663147,"72":-0.12674511969089508,"73":-0.0038625597953796387,"74":0.04712143912911415,"75":0.09481264650821686,"76":0.013707585632801056,"77":0.05036109313368797,"78":0.17678892612457275,"79":0.07354919612407684,"80":-0.04001745581626892,"81":-0.07745011150836945,"82":-0.017426472157239914,"83":-0.037442345172166824,"84":-0.11271790415048599,"85":-0.037506792694330215,"86":0.057823214679956436,"87":0.10751572996377945,"88":-0.09736814349889755,"89":-0.10092698782682419,"90":-0.1434292197227478,"91":0.12220213562250137,"92":0.17978264391422272,"93":-0.19408005475997925,"94":-0.08681154251098633,"95":-0.011503027752041817,"96":-0.09392940253019333,"97":0.11600161343812943,"98":0.20119863748550415,"99":-0.1230279877781868}},"9":{"bias":-0.08738665282726288,"weights":{"0":-0.027114341035485268,"1":-0.14978241920471191,"2":0.14396174252033234,"3":0.031205588951706886,"4":0.08812174946069717,"5":0.09687627106904984,"6":0.07846101373434067,"7":0.18219400942325592,"8":-0.06217498332262039,"9":0.14149990677833557,"10":0.019633712247014046,"11":0.0691768079996109,"12":0.11779191344976425,"13":0.12289343774318695,"14":-0.16907602548599243,"15":-0.019400551915168762,"16":-0.19845867156982422,"17":-0.10856941342353821,"18":-0.14381076395511627,"19":0.0709758847951889,"20":0.008433843962848186,"21":-0.14068721234798431,"22":-0.08123072981834412,"23":-0.0014908119337633252,"24":-0.146884024143219,"25":0.04572104662656784,"26":0.17384926974773407,"27":0.05546575039625168,"28":-0.04012473672628403,"29":-0.1987006515264511,"30":0.1659010350704193,"31":-0.15681594610214233,"32":0.10780584812164307,"33":-0.047179702669382095,"34":-0.09840337932109833,"35":-0.12402400374412537,"36":0.07844077050685883,"37":0.0013851624680683017,"38":-0.147054523229599,"39":0.05858922004699707,"40":0.11407319456338882,"41":0.14005208015441895,"42":-0.17726562917232513,"43":-0.1968715637922287,"44":-0.018134690821170807,"45":0.07393636554479599,"46":-0.11634383350610733,"47":0.020908940583467484,"48":-0.03182269632816315,"49":0.0022299017291516066,"50":0.0969252809882164,"51":-0.1340285837650299,"52":-0.16646555066108704,"53":-0.03497692570090294,"54":0.01158628799021244,"55":0.10386679321527481,"56":-0.12142705917358398,"57":-0.018016792833805084,"58":-0.1584998220205307,"59":-0.08534952998161316,"60":-0.15091688930988312,"61":-0.05170804262161255,"62":-0.18221667408943176,"63":-0.13280364871025085,"64":0.13523288071155548,"65":-0.12200922518968582,"66":-0.10611836612224579,"67":-0.015092208050191402,"68":0.18873633444309235,"69":0.18412737548351288,"70":-0.15769459307193756,"71":0.11069566756486893,"72":-0.03152366727590561,"73":0.0001372736442135647,"74":-0.1540617197751999,"75":-0.06464747339487076,"76":0.1167423352599144,"77":0.012861409224569798,"78":0.0904761329293251,"79":0.1192159652709961,"80":0.13076439499855042,"81":0.10208067297935486,"82":0.020561011508107185,"83":0.060915507376194,"84":-0.09250612556934357,"85":-0.16822394728660583,"86":0.08634534478187561,"87":-0.12860438227653503,"88":0.06747335940599442,"89":0.08762706816196442,"90":0.15867386758327484,"91":0.16995690762996674,"92":0.15135441720485687,"93":-0.03125883638858795,"94":-0.1326800137758255,"95":0.04399651661515236,"96":-0.017868293449282646,"97":0.05935012921690941,"98":0.05527763068675995,"99":-0.18863177299499512}},"10":{"bias":-0.002167494734749198,"weights":{"0":-0.009288225322961807,"1":0.1329284906387329,"2":-0.12884147465229034,"3":-0.18732425570487976,"4":-0.05951349437236786,"5":-0.10472491383552551,"6":-0.0159443449229002,"7":0.1761128455400467,"8":0.028135698288679123,"9":0.10425172001123428,"10":-0.1343984454870224,"11":-0.07599899917840958,"12":0.06085088849067688,"13":-0.175885871052742,"14":0.020798001438379288,"15":0.0365467295050621,"16":-0.0016756486147642136,"17":0.029622938483953476,"18":-0.1724524348974228,"19":0.1076788678765297,"20":0.05302901938557625,"21":-0.026326462626457214,"22":-0.017650635913014412,"23":-0.1526339203119278,"24":-0.19183148443698883,"25":0.17170056700706482,"26":-0.03453676402568817,"27":-0.04176154360175133,"28":0.028492514044046402,"29":0.151609405875206,"30":-0.08556953072547913,"31":-0.05792946740984917,"32":-0.007085716351866722,"33":0.03092496283352375,"34":0.05673881992697716,"35":-0.14173369109630585,"36":-0.19032509624958038,"37":-0.1703530102968216,"38":0.15710848569869995,"39":-0.12796524167060852,"40":-0.08617224544286728,"41":-0.13263364136219025,"42":0.0047095464542508125,"43":-0.12497776001691818,"44":-0.02890794165432453,"45":0.18331378698349,"46":0.101030632853508,"47":0.048134028911590576,"48":0.029326921328902245,"49":-0.09211937338113785,"50":-0.17746324837207794,"51":0.035725612193346024,"52":-0.1697818636894226,"53":0.11947766691446304,"54":-0.06342539936304092,"55":0.06661538034677505,"56":0.12879157066345215,"57":-0.061040036380290985,"58":0.14718173444271088,"59":-0.029451722279191017,"60":0.11035210639238358,"61":0.08218374848365784,"62":0.13332517445087433,"63":0.028756998479366302,"64":-0.1923876851797104,"65":-0.02638048119843006,"66":0.18444810807704926,"67":-0.12429971992969513,"68":0.18591462075710297,"69":-0.1773694008588791,"70":-0.16376981139183044,"71":0.04657476022839546,"72":0.0812973827123642,"73":-0.1025838628411293,"74":0.1400713175535202,"75":0.11266559362411499,"76":0.09208907932043076,"77":-0.08016916364431381,"78":-0.16410283744335175,"79":-0.06035451963543892,"80":-0.18478240072727203,"81":-0.1914445161819458,"82":-0.17089702188968658,"83":0.0995899885892868,"84":-0.13630107045173645,"85":-0.03891408070921898,"86":0.13513760268688202,"87":-0.05979953706264496,"88":0.0454394593834877,"89":0.14920055866241455,"90":-0.13413286209106445,"91":0.0033375469502061605,"92":-0.028882665559649467,"93":-0.14028950035572052,"94":0.04281911998987198,"95":-0.008290898986160755,"96":0.15996460616588593,"97":-0.1168411374092102,"98":0.10980000346899033,"99":0.12586569786071777}},"11":{"bias":-0.020120270550251007,"weights":{"0":0.14186371862888336,"1":-0.029638152569532394,"2":0.15651962161064148,"3":-0.06562118232250214,"4":-0.17240551114082336,"5":0.018597843125462532,"6":-0.15570440888404846,"7":0.03613578528165817,"8":-0.13887663185596466,"9":0.19270667433738708,"10":0.013025201857089996,"11":-0.1920328140258789,"12":-0.01589924842119217,"13":0.1964985877275467,"14":-0.14979232847690582,"15":0.07124852389097214,"16":0.16752313077449799,"17":0.03619297221302986,"18":-0.19298548996448517,"19":-0.08182212710380554,"20":-0.08640778809785843,"21":-0.05491453781723976,"22":0.1577366441488266,"23":-0.024409478530287743,"24":-0.09138786047697067,"25":-0.10197644680738449,"26":0.15679112076759338,"27":0.019438141956925392,"28":-0.11865092813968658,"29":0.07889165729284286,"30":-0.14705045521259308,"31":-0.1158764660358429,"32":0.12012063711881638,"33":-0.1754576861858368,"34":-0.008602332323789597,"35":-0.025569457560777664,"36":-0.07491254806518555,"37":0.09673408418893814,"38":-0.15220770239830017,"39":-0.11130332201719284,"40":0.04259948804974556,"41":0.008398237638175488,"42":-0.08280814439058304,"43":0.06971584260463715,"44":-0.06139398366212845,"45":0.19181135296821594,"46":0.09440647810697556,"47":0.0197785384953022,"48":0.036645933985710144,"49":0.1368013322353363,"50":0.010918955318629742,"51":0.15906083583831787,"52":0.1298390030860901,"53":-0.1835366040468216,"54":0.012538319453597069,"55":-0.14837151765823364,"56":-0.18847118318080902,"57":0.07056988775730133,"58":0.07703157514333725,"59":-0.15405450761318207,"60":0.06395512074232101,"61":0.11794718354940414,"62":0.02816956862807274,"63":-0.08799907565116882,"64":-0.07777897268533707,"65":0.13407441973686218,"66":0.06379450857639313,"67":0.14818672835826874,"68":-0.16167283058166504,"69":-0.030074451118707657,"70":-0.041353899985551834,"71":0.16936281323432922,"72":-0.08128069341182709,"73":-0.15856733918190002,"74":0.04523298889398575,"75":-0.14902183413505554,"76":0.17779268324375153,"77":-0.06093745678663254,"78":0.1331036239862442,"79":-0.11089889705181122,"80":-0.11792514473199844,"81":0.007654279470443726,"82":0.10616963356733322,"83":-0.00005618554860120639,"84":0.032849397510290146,"85":0.18049462139606476,"86":-0.08375654369592667,"87":-0.016829803586006165,"88":0.16366533935070038,"89":-0.133445605635643,"90":-0.12367948144674301,"91":0.09775298088788986,"92":0.20269523561000824,"93":-0.005721720866858959,"94":-0.13156527280807495,"95":0.0846971645951271,"96":0.11328406631946564,"97":0.023545049130916595,"98":0.08438403904438019,"99":0.1678716093301773}},"12":{"bias":0.08800847828388214,"weights":{"0":0.059672433882951736,"1":-0.15963473916053772,"2":-0.06384237110614777,"3":0.16472509503364563,"4":-0.022970404475927353,"5":0.07058354467153549,"6":0.01665867120027542,"7":0.17909599840641022,"8":-0.16485212743282318,"9":0.14045760035514832,"10":-0.17605282366275787,"11":-0.0862695723772049,"12":0.07703627645969391,"13":0.11471006274223328,"14":0.0990096926689148,"15":0.13902439177036285,"16":0.0043044183403253555,"17":0.14683447778224945,"18":-0.1378505825996399,"19":0.19111405313014984,"20":0.1685941517353058,"21":0.15872368216514587,"22":-0.09078574180603027,"23":-0.19578149914741516,"24":0.052153151482343674,"25":-0.18491148948669434,"26":-0.06420879065990448,"27":0.18381991982460022,"28":0.08075617253780365,"29":0.08343590795993805,"30":0.11611659824848175,"31":0.13259291648864746,"32":0.195467010140419,"33":0.017305666580796242,"34":0.03759618103504181,"35":-0.13123111426830292,"36":0.01769837737083435,"37":0.010973242111504078,"38":-0.04675603657960892,"39":-0.14532381296157837,"40":-0.0030687737744301558,"41":0.016409577801823616,"42":0.14135697484016418,"43":-0.18863347172737122,"44":-0.10390245169401169,"45":-0.08316502720117569,"46":0.0858301892876625,"47":-0.10476461052894592,"48":0.1865820437669754,"49":-0.1654902994632721,"50":0.19180668890476227,"51":0.03030819073319435,"52":0.03814374655485153,"53":-0.08672432601451874,"54":-0.03931877017021179,"55":-0.06852513551712036,"56":-0.10188740491867065,"57":0.14156991243362427,"58":-0.015970589593052864,"59":-0.021428508684039116,"60":-0.015098173171281815,"61":0.13789431750774384,"62":-0.02852962724864483,"63":0.11284372955560684,"64":-0.04440964013338089,"65":-0.04838726669549942,"66":-0.021067354828119278,"67":0.005865884944796562,"68":0.11332415044307709,"69":0.14856600761413574,"70":-0.19160953164100647,"71":-0.19876135885715485,"72":0.18305569887161255,"73":0.09778199344873428,"74":-0.12137578427791595,"75":0.1372925192117691,"76":-0.13752241432666779,"77":0.08126489073038101,"78":0.13494645059108734,"79":0.12934598326683044,"80":-0.1675085723400116,"81":0.03773536533117294,"82":-0.199618399143219,"83":-0.04352450370788574,"84":0.05568305402994156,"85":0.027117302641272545,"86":-0.0006760474643670022,"87":-0.18567880988121033,"88":0.12808562815189362,"89":-0.10186929255723953,"90":-0.1464512199163437,"91":0.18907886743545532,"92":-0.07713977247476578,"93":0.040433935821056366,"94":-0.000031188268621917814,"95":-0.09954866766929626,"96":-0.11016101390123367,"97":-0.142162024974823,"98":-0.046515531837940216,"99":-0.06502695381641388}},"13":{"bias":0.1722167730331421,"weights":{"0":0.14602020382881165,"1":-0.11900489777326584,"2":-0.025875715538859367,"3":-0.16708682477474213,"4":0.06582015752792358,"5":0.1222502812743187,"6":0.03854542598128319,"7":-0.15929467976093292,"8":0.19739125669002533,"9":-0.024283254519104958,"10":0.04416631907224655,"11":0.13447512686252594,"12":-0.1105567142367363,"13":0.14219388365745544,"14":-0.1180911511182785,"15":-0.12423273175954819,"16":0.029322482645511627,"17":-0.17152395844459534,"18":0.18783551454544067,"19":0.1808626353740692,"20":0.18189343810081482,"21":-0.12575285136699677,"22":-0.09475354105234146,"23":0.19800634682178497,"24":0.12821704149246216,"25":0.027720779180526733,"26":-0.045334793627262115,"27":0.023494018241763115,"28":0.12312543392181396,"29":0.14451485872268677,"30":0.19683124125003815,"31":-0.07989408820867538,"32":0.0527770034968853,"33":0.13733798265457153,"34":0.036393944174051285,"35":0.050104133784770966,"36":-0.19535958766937256,"37":0.016243625432252884,"38":-0.11070231348276138,"39":0.156533345580101,"40":-0.09410195797681808,"41":-0.10908844321966171,"42":0.04960992559790611,"43":0.005947105586528778,"44":-0.02284572832286358,"45":-0.09471382200717926,"46":0.14280198514461517,"47":-0.16092298924922943,"48":0.16682854294776917,"49":0.007178259547799826,"50":0.0743337944149971,"51":0.04395197331905365,"52":0.0851641371846199,"53":0.19039411842823029,"54":-0.12199296057224274,"55":-0.07679735124111176,"56":0.1587735265493393,"57":-0.0298019852489233,"58":0.19064517319202423,"59":0.19617193937301636,"60":0.15066106617450714,"61":-0.1788850873708725,"62":0.08867430686950684,"63":0.18602195382118225,"64":0.09374398738145828,"65":-0.15556374192237854,"66":-0.18719562888145447,"67":0.06908082962036133,"68":-0.0028389557264745235,"69":-0.013083819299936295,"70":0.14361821115016937,"71":-0.07865572720766068,"72":0.08353433012962341,"73":-0.06390435248613358,"74":0.18789905309677124,"75":0.004756236914545298,"76":0.11033429205417633,"77":-0.08922526240348816,"78":0.18545466661453247,"79":-0.06089932844042778,"80":0.11167820543050766,"81":0.033230219036340714,"82":0.014291046187281609,"83":0.02993665635585785,"84":-0.013482902199029922,"85":-0.05514165014028549,"86":-0.13079850375652313,"87":0.13517624139785767,"88":-0.018932897597551346,"89":0.06618241220712662,"90":0.11250583082437515,"91":-0.10908427834510803,"92":0.054056111723184586,"93":0.04758584126830101,"94":-0.13939212262630463,"95":-0.1972455233335495,"96":0.17978228628635406,"97":-0.031533289700746536,"98":0.15255333483219147,"99":-0.10459552705287933}},"14":{"bias":-0.17841307818889618,"weights":{"0":-0.07437250763177872,"1":-0.030060524120926857,"2":0.06993667036294937,"3":0.13586756587028503,"4":-0.19212624430656433,"5":-0.032963983714580536,"6":-0.16506963968276978,"7":-0.1988029032945633,"8":-0.04917505010962486,"9":-0.12709403038024902,"10":-0.11514408141374588,"11":-0.17029179632663727,"12":-0.004159238189458847,"13":-0.008892488665878773,"14":0.14362242817878723,"15":0.0948106124997139,"16":0.07237395644187927,"17":0.15566788613796234,"18":0.05664065107703209,"19":0.08331228792667389,"20":-0.027410538867115974,"21":0.09381289035081863,"22":-0.040199071168899536,"23":-0.0018918606219813228,"24":0.16852036118507385,"25":-0.08197666704654694,"26":0.026323238387703896,"27":0.07419075071811676,"28":0.0263424813747406,"29":0.18392087519168854,"30":0.08198871463537216,"31":0.14189322292804718,"32":-0.09455505013465881,"33":-0.044826705008745193,"34":0.02565786987543106,"35":0.18752415478229523,"36":0.11364176869392395,"37":0.06079723313450813,"38":0.1388567090034485,"39":-0.09333907067775726,"40":-0.03722063824534416,"41":0.18477456271648407,"42":-0.05793449655175209,"43":0.08390187472105026,"44":0.10605352371931076,"45":-0.07161643356084824,"46":0.09120908379554749,"47":0.14197984337806702,"48":-0.02023964188992977,"49":0.10456044971942902,"50":0.022501954808831215,"51":0.1973874866962433,"52":-0.08683271706104279,"53":-0.15177038311958313,"54":-0.08417309075593948,"55":0.1423536092042923,"56":-0.12915314733982086,"57":0.07654904574155807,"58":0.13331717252731323,"59":-0.13042950630187988,"60":0.18781578540802002,"61":0.013979073613882065,"62":-0.10597503930330276,"63":0.13881641626358032,"64":-0.16729776561260223,"65":-0.1903807520866394,"66":-0.0705471783876419,"67":0.1313910186290741,"68":-0.14599400758743286,"69":0.1028517335653305,"70":-0.05067286267876625,"71":0.04937877878546715,"72":0.19787746667861938,"73":0.0027999349404126406,"74":-0.00638189073652029,"75":0.018814997747540474,"76":0.048458173871040344,"77":-0.046876464039087296,"78":-0.15393611788749695,"79":-0.12463615834712982,"80":-0.08124349266290665,"81":0.15634533762931824,"82":0.029747389256954193,"83":0.17343848943710327,"84":0.05938858166337013,"85":0.023405790328979492,"86":-0.13292469084262848,"87":0.008648006245493889,"88":0.1407843679189682,"89":-0.07226687669754028,"90":-0.1606854945421219,"91":0.10508552938699722,"92":0.03430254012346268,"93":0.13339833915233612,"94":-0.031086556613445282,"95":-0.17267824709415436,"96":-0.04307097569108009,"97":0.03290513530373573,"98":0.19510208070278168,"99":-0.06918566673994064}},"15":{"bias":0.11898598819971085,"weights":{"0":-0.14594565331935883,"1":0.011957253329455853,"2":-0.12486124038696289,"3":0.14566127955913544,"4":0.01593482494354248,"5":0.02269679121673107,"6":0.07114121317863464,"7":-0.19728133082389832,"8":-0.14394837617874146,"9":0.13680267333984375,"10":-0.040688175708055496,"11":0.12877297401428223,"12":0.022071009501814842,"13":0.17475110292434692,"14":-0.038014158606529236,"15":0.06163402646780014,"16":0.17855502665042877,"17":0.033140454441308975,"18":0.1806012988090515,"19":0.16386109590530396,"20":0.00868198275566101,"21":-0.12737715244293213,"22":-0.03595177084207535,"23":-0.1773659735918045,"24":-0.19492879509925842,"25":0.19517488777637482,"26":0.0572490319609642,"27":0.19171710312366486,"28":0.1380777806043625,"29":0.1282859444618225,"30":-0.10857842862606049,"31":-0.04100753366947174,"32":0.006291649304330349,"33":-0.07132398337125778,"34":0.1410037726163864,"35":-0.08771298825740814,"36":0.017656881362199783,"37":-0.022118430584669113,"38":-0.15675029158592224,"39":0.12474483251571655,"40":-0.029691115021705627,"41":0.1939806342124939,"42":-0.1307099163532257,"43":0.026091299951076508,"44":-0.14537353813648224,"45":0.1617514193058014,"46":0.20183414220809937,"47":0.012641817331314087,"48":-0.07212549448013306,"49":0.17672546207904816,"50":0.08830389380455017,"51":0.007346123922616243,"52":0.19722510874271393,"53":-0.1816459596157074,"54":0.05785214900970459,"55":0.18313027918338776,"56":0.07300031185150146,"57":0.16947314143180847,"58":0.10184449702501297,"59":-0.03187615051865578,"60":0.19617949426174164,"61":-0.18519675731658936,"62":-0.0584135465323925,"63":-0.1534004658460617,"64":0.05145043879747391,"65":-0.01806371845304966,"66":-0.1396554559469223,"67":-0.1689954549074173,"68":-0.05912020057439804,"69":0.10945970565080643,"70":-0.10725778341293335,"71":-0.10049191117286682,"72":0.16746178269386292,"73":0.04891417920589447,"74":-0.1260184496641159,"75":0.17272089421749115,"76":-0.12415123730897903,"77":0.01146428007632494,"78":-0.18881699442863464,"79":-0.08414291590452194,"80":0.1368636190891266,"81":-0.04585368186235428,"82":-0.12760229408740997,"83":-0.03452035039663315,"84":0.08408420532941818,"85":0.004677043296396732,"86":0.1743338406085968,"87":-0.018066639080643654,"88":0.013468684628605843,"89":0.020466992631554604,"90":-0.07681348919868469,"91":-0.05310633033514023,"92":-0.11448649317026138,"93":-0.008179743774235249,"94":0.12142639607191086,"95":-0.034882236272096634,"96":-0.12921640276908875,"97":-0.16379046440124512,"98":-0.17229200899600983,"99":-0.1665509194135666}},"16":{"bias":-0.19277210533618927,"weights":{"0":0.1739925891160965,"1":0.19475965201854706,"2":-0.06762130558490753,"3":-0.18613040447235107,"4":-0.08002232015132904,"5":0.0037268968299031258,"6":0.049352601170539856,"7":-0.18041867017745972,"8":-0.07781267911195755,"9":-0.08432559669017792,"10":0.1542222648859024,"11":-0.18493516743183136,"12":-0.12181352078914642,"13":-0.1402825564146042,"14":0.09843111783266068,"15":0.11232201009988785,"16":-0.06629399210214615,"17":0.12052945792675018,"18":0.06712806969881058,"19":-0.06696155667304993,"20":0.17904837429523468,"21":0.05652797222137451,"22":0.17969642579555511,"23":-0.07010204344987869,"24":-0.03760501742362976,"25":0.19423885643482208,"26":0.1249796450138092,"27":-0.08923633396625519,"28":0.08045361191034317,"29":-0.024618906900286674,"30":-0.06175711750984192,"31":0.07165005803108215,"32":0.19576916098594666,"33":0.18864566087722778,"34":-0.1816762238740921,"35":-0.034986723214387894,"36":-0.1284431517124176,"37":0.057506807148456573,"38":-0.06994540989398956,"39":0.07762749493122101,"40":-0.1577317863702774,"41":-0.05454683303833008,"42":-0.17064400017261505,"43":-0.14208324253559113,"44":-0.08010894060134888,"45":0.0015579377068206668,"46":-0.0016447551315650344,"47":-0.16501538455486298,"48":-0.06075166538357735,"49":-0.16100217401981354,"50":0.07683367282152176,"51":-0.11050568521022797,"52":0.1311424970626831,"53":-0.11104641109704971,"54":-0.16527658700942993,"55":0.13555167615413666,"56":0.022581741213798523,"57":-0.11411412060260773,"58":-0.1700693517923355,"59":-0.17182426154613495,"60":-0.12716640532016754,"61":0.12455031275749207,"62":-0.029561547562479973,"63":0.14976128935813904,"64":0.0935463085770607,"65":0.11837999522686005,"66":0.19136102497577667,"67":0.1520007997751236,"68":-0.037970323115587234,"69":0.09217046201229095,"70":-0.11659124493598938,"71":-0.007603967096656561,"72":-0.13290777802467346,"73":0.14788828790187836,"74":0.029886778444051743,"75":0.14727923274040222,"76":-0.18803346157073975,"77":-0.07648935914039612,"78":0.05628059804439545,"79":-0.13514745235443115,"80":-0.19517137110233307,"81":-0.07056970149278641,"82":0.0654158815741539,"83":-0.20012083649635315,"84":-0.17792683839797974,"85":0.15260161459445953,"86":-0.07909639179706573,"87":-0.1400500386953354,"88":0.00955929048359394,"89":0.030441006645560265,"90":0.10796666145324707,"91":0.07596560567617416,"92":0.012607207521796227,"93":-0.19378584623336792,"94":-0.1960703283548355,"95":0.04505053162574768,"96":0.020968187600374222,"97":-0.09789812564849854,"98":-0.10419711470603943,"99":-0.058006927371025085}},"17":{"bias":0.18761014938354492,"weights":{"0":-0.19853438436985016,"1":0.1830749660730362,"2":0.007679997477680445,"3":0.10321423411369324,"4":-0.05479234457015991,"5":-0.10591396689414978,"6":-0.07880903035402298,"7":0.192030668258667,"8":0.03535572811961174,"9":0.1921822428703308,"10":-0.03679075837135315,"11":-0.04004611074924469,"12":-0.01862248219549656,"13":-0.1282525211572647,"14":0.053021520376205444,"15":0.07025422155857086,"16":0.10825905203819275,"17":0.0869455486536026,"18":0.12886708974838257,"19":0.1174694299697876,"20":0.1302962452173233,"21":0.1071280837059021,"22":0.1518131047487259,"23":0.005316874478012323,"24":-0.02248748205602169,"25":-0.1631222665309906,"26":-0.028444062918424606,"27":0.0009343965793959796,"28":-0.0260341577231884,"29":-0.12817277014255524,"30":-0.13976828753948212,"31":-0.1700764298439026,"32":0.04842648655176163,"33":-0.0432768352329731,"34":0.05805691331624985,"35":-0.003818752011284232,"36":-0.006030162796378136,"37":0.18856900930404663,"38":0.09758488833904266,"39":0.13718658685684204,"40":-0.003849963890388608,"41":0.002174931112676859,"42":-0.1304113268852234,"43":0.03637933358550072,"44":0.025540323927998543,"45":0.1591869294643402,"46":-0.12501788139343262,"47":0.097667396068573,"48":-0.0058120302855968475,"49":0.07757401466369629,"50":-0.08480437844991684,"51":-0.10355132073163986,"52":-0.13648566603660583,"53":-0.05481037124991417,"54":-0.017330896109342575,"55":0.1259290724992752,"56":-0.15409602224826813,"57":-0.18797777593135834,"58":0.13722260296344757,"59":-0.019423754885792732,"60":0.07469933480024338,"61":-0.010873990133404732,"62":-0.01276431791484356,"63":0.10214681178331375,"64":0.20050126314163208,"65":0.07354079931974411,"66":0.04979133978486061,"67":-0.09489720314741135,"68":-0.1907014399766922,"69":0.10743296146392822,"70":0.017675191164016724,"71":-0.1431925892829895,"72":0.07582986354827881,"73":0.05213617905974388,"74":-0.189500629901886,"75":0.2007206827402115,"76":-0.19548116624355316,"77":0.08220589905977249,"78":-0.14150221645832062,"79":0.027199305593967438,"80":0.17065627872943878,"81":-0.010145273990929127,"82":0.014340725727379322,"83":0.1929781436920166,"84":0.05849691480398178,"85":0.028530966490507126,"86":0.046390388160943985,"87":0.07306545227766037,"88":-0.02588197961449623,"89":-0.18356095254421234,"90":-0.16375355422496796,"91":-0.17119912803173065,"92":-0.01699700951576233,"93":-0.1116238534450531,"94":-0.05131053179502487,"95":0.14948607981204987,"96":0.19910889863967896,"97":-0.08648789674043655,"98":0.023951556533575058,"99":-0.03422117233276367}},"18":{"bias":0.11974823474884033,"weights":{"0":0.11096666008234024,"1":0.1326901614665985,"2":-0.09206991642713547,"3":0.1407967507839203,"4":0.18880656361579895,"5":-0.17128734290599823,"6":0.16974994540214539,"7":-0.12596464157104492,"8":-0.021604521200060844,"9":0.13991887867450714,"10":-0.01356576755642891,"11":-0.1372694969177246,"12":0.03278738260269165,"13":-0.1459009200334549,"14":-0.011706946417689323,"15":-0.1518242359161377,"16":-0.09275579452514648,"17":0.14941030740737915,"18":0.1758500039577484,"19":-0.022425491362810135,"20":-0.1982368528842926,"21":-0.1584131121635437,"22":-0.10820947587490082,"23":0.04907427728176117,"24":-0.1927521824836731,"25":0.14304308593273163,"26":-0.11922882497310638,"27":-0.10852830857038498,"28":0.046959929168224335,"29":0.12970221042633057,"30":0.1775042563676834,"31":-0.09189493209123611,"32":0.17320504784584045,"33":-0.015145995654165745,"34":-0.0919438824057579,"35":-0.18302778899669647,"36":0.19275712966918945,"37":0.004608239978551865,"38":-0.1267390251159668,"39":-0.027495816349983215,"40":0.07241833209991455,"41":0.13712263107299805,"42":-0.07112384587526321,"43":0.022324493154883385,"44":-0.10598095506429672,"45":0.19320330023765564,"46":-0.11105728894472122,"47":-0.02680807188153267,"48":-0.13826830685138702,"49":0.1856047362089157,"50":-0.07326529920101166,"51":0.07059077173471451,"52":0.051622506231069565,"53":0.16901083290576935,"54":0.004758182913064957,"55":-0.1740025132894516,"56":0.07621537894010544,"57":0.1264405995607376,"58":-0.12112346291542053,"59":0.15808220207691193,"60":0.11175097525119781,"61":-0.037939898669719696,"62":0.10620850324630737,"63":-0.1878734529018402,"64":0.021470729261636734,"65":0.17720617353916168,"66":0.148055300116539,"67":0.009291673079133034,"68":0.07455521821975708,"69":0.10909223556518555,"70":0.09675570577383041,"71":0.058157335966825485,"72":0.19600623846054077,"73":-0.031161945313215256,"74":0.07841331511735916,"75":0.09838434308767319,"76":0.18940332531929016,"77":-0.10030569136142731,"78":-0.07338106632232666,"79":-0.15432041883468628,"80":-0.024067383259534836,"81":0.13393622636795044,"82":-0.13804972171783447,"83":0.0654139369726181,"84":-0.13450653851032257,"85":-0.03544936329126358,"86":-0.17052866518497467,"87":0.04504694789648056,"88":-0.08695066720247269,"89":-0.12504655122756958,"90":-0.03356296569108963,"91":0.15330378711223602,"92":0.06218966469168663,"93":-0.17715288698673248,"94":0.024461986497044563,"95":-0.0964738205075264,"96":0.16801835596561432,"97":0.020736349746584892,"98":-0.12877054512500763,"99":-0.03137603774666786}},"19":{"bias":0.020344004034996033,"weights":{"0":-0.0757727399468422,"1":-0.15834227204322815,"2":-0.07305186241865158,"3":-0.04880212992429733,"4":-0.042150069028139114,"5":-0.030599702149629593,"6":-0.04456181451678276,"7":0.026265094056725502,"8":0.094840407371521,"9":0.0941433534026146,"10":-0.13151685893535614,"11":0.08888592571020126,"12":0.18991854786872864,"13":-0.11156456917524338,"14":-0.10782428830862045,"15":0.039071764796972275,"16":-0.10840680450201035,"17":0.06952270865440369,"18":-0.05860133096575737,"19":0.12682855129241943,"20":-0.030504383146762848,"21":-0.1399429440498352,"22":-0.043963510543107986,"23":0.0022238590754568577,"24":-0.049142785370349884,"25":0.12081971019506454,"26":-0.16721810400485992,"27":0.15189509093761444,"28":0.0705394297838211,"29":-0.0691736489534378,"30":-0.18455404043197632,"31":0.07102735340595245,"32":-0.10894845426082611,"33":0.1844325065612793,"34":0.005722498055547476,"35":0.06354071199893951,"36":0.14468532800674438,"37":0.04393754154443741,"38":-0.13395792245864868,"39":0.14054545760154724,"40":0.18466952443122864,"41":0.09190811961889267,"42":0.17268243432044983,"43":0.09097819030284882,"44":0.1106872409582138,"45":0.15625673532485962,"46":-0.11611050367355347,"47":-0.03983669728040695,"48":-0.14920029044151306,"49":-0.014087541028857231,"50":-0.18657594919204712,"51":-0.01778685860335827,"52":-0.0676753968000412,"53":-0.1579800248146057,"54":-0.15666380524635315,"55":-0.17663425207138062,"56":-0.16800427436828613,"57":-0.1749495267868042,"58":0.12942887842655182,"59":-0.18288686871528625,"60":-0.18173609673976898,"61":0.06670314818620682,"62":-0.18078066408634186,"63":0.00020477418729569763,"64":0.19585734605789185,"65":-0.11103843152523041,"66":-0.1468895822763443,"67":0.0315418466925621,"68":0.178660586476326,"69":-0.1052398532629013,"70":0.022015230730175972,"71":-0.035146623849868774,"72":0.09789565205574036,"73":0.17197337746620178,"74":-0.13170741498470306,"75":0.037913937121629715,"76":0.0726783350110054,"77":0.18627414107322693,"78":-0.021559253334999084,"79":0.10945919156074524,"80":-0.14967112243175507,"81":0.15687979757785797,"82":-0.09679728746414185,"83":-0.1780293583869934,"84":-0.049698155373334885,"85":-0.18245351314544678,"86":0.13797149062156677,"87":0.15146467089653015,"88":0.18299376964569092,"89":-0.041438374668359756,"90":0.08279217779636383,"91":0.07039647549390793,"92":0.15858037769794464,"93":0.0032895677722990513,"94":-0.08467446267604828,"95":-0.013486822135746479,"96":-0.014260789379477501,"97":0.07308328151702881,"98":-0.09893786907196045,"99":0.011325913481414318}},"20":{"bias":-0.08696211874485016,"weights":{"0":-0.01333715207874775,"1":-0.07415161281824112,"2":-0.0058204736560583115,"3":-0.07652579247951508,"4":-0.17560268938541412,"5":-0.10391640663146973,"6":-0.058691732585430145,"7":0.07146602869033813,"8":-0.06034190207719803,"9":-0.200277641415596,"10":-0.17625978589057922,"11":0.06897348910570145,"12":0.012772827409207821,"13":-0.19331210851669312,"14":-0.006285668816417456,"15":0.08669696748256683,"16":0.07179179042577744,"17":0.18607409298419952,"18":-0.10277444869279861,"19":0.1344086080789566,"20":0.07323205471038818,"21":0.13271285593509674,"22":0.001394125516526401,"23":0.18642808496952057,"24":0.029109248891472816,"25":-0.042355116456747055,"26":0.16555927693843842,"27":-0.08291246742010117,"28":0.18311884999275208,"29":0.03835254907608032,"30":-0.1708444058895111,"31":-0.15119415521621704,"32":0.10583645105361938,"33":0.13104647397994995,"34":0.16329921782016754,"35":-0.004911897238343954,"36":0.14574337005615234,"37":0.03373599424958229,"38":0.014049411751329899,"39":-0.024514183402061462,"40":0.08417673408985138,"41":-0.1796678900718689,"42":0.03165629878640175,"43":0.16437138617038727,"44":0.0288868248462677,"45":-0.03160296380519867,"46":0.06580720096826553,"47":-0.1198529601097107,"48":-0.194489985704422,"49":0.18066105246543884,"50":0.1587141752243042,"51":0.07932063937187195,"52":-0.16777105629444122,"53":-0.11906371265649796,"54":0.0978059321641922,"55":-0.044815290719270706,"56":0.027788957580924034,"57":-0.10335954278707504,"58":0.07051549106836319,"59":0.08946477621793747,"60":-0.018390800803899765,"61":-0.12872113287448883,"62":-0.19244275987148285,"63":0.10703380405902863,"64":0.018690772354602814,"65":0.18723952770233154,"66":-0.0944591835141182,"67":-0.03364796191453934,"68":0.03764702379703522,"69":-0.05544586852192879,"70":-0.052632030099630356,"71":0.04431841894984245,"72":-0.0766972154378891,"73":-0.19031818211078644,"74":-0.1543000042438507,"75":0.08696450293064117,"76":0.0872325748205185,"77":-0.09808406978845596,"78":-0.029518771916627884,"79":-0.1492699533700943,"80":0.10039318352937698,"81":0.16831350326538086,"82":-0.12234488874673843,"83":0.07710147649049759,"84":0.16590915620326996,"85":0.08655057847499847,"86":0.030160149559378624,"87":0.17351773381233215,"88":-0.07064341008663177,"89":0.09000661969184875,"90":0.09130824357271194,"91":0.015538654290139675,"92":-0.16423137485980988,"93":-0.18347489833831787,"94":0.07327920198440552,"95":0.10316814482212067,"96":-0.062076255679130554,"97":0.040432531386613846,"98":-0.184317484498024,"99":-0.016886593773961067}},"21":{"bias":-0.14134889841079712,"weights":{"0":0.048165902495384216,"1":0.024619314819574356,"2":0.10704386979341507,"3":0.19454272091388702,"4":0.11051550507545471,"5":-0.005963953677564859,"6":0.17523981630802155,"7":-0.11332467943429947,"8":-0.0885496586561203,"9":-0.08760596811771393,"10":-0.02255966328084469,"11":0.021393708884716034,"12":0.1051960438489914,"13":0.19588471949100494,"14":0.12491672486066818,"15":-0.09859408438205719,"16":0.17458316683769226,"17":0.004439078737050295,"18":-0.15363416075706482,"19":0.057764820754528046,"20":0.054227590560913086,"21":0.06211034208536148,"22":-0.1417527198791504,"23":-0.1879083216190338,"24":-0.10927903652191162,"25":-0.16230513155460358,"26":0.10773641616106033,"27":0.01105422992259264,"28":-0.08922035992145538,"29":-0.005551601760089397,"30":-0.1419433057308197,"31":0.07894177734851837,"32":0.007694828789681196,"33":-0.09411636739969254,"34":-0.16577625274658203,"35":-0.11110968142747879,"36":0.07507933676242828,"37":-0.00545300031080842,"38":0.005000012926757336,"39":-0.18116474151611328,"40":0.17848870158195496,"41":-0.1804424226284027,"42":-0.13502003252506256,"43":-0.03367630019783974,"44":0.03403577581048012,"45":-0.1893766224384308,"46":-0.14687411487102509,"47":0.07003432512283325,"48":0.011554867960512638,"49":-0.17510198056697845,"50":-0.15607371926307678,"51":-0.021140294149518013,"52":0.11084383726119995,"53":0.1711949110031128,"54":0.04134504124522209,"55":0.1631816327571869,"56":-0.006066587753593922,"57":0.08467423170804977,"58":-0.008020752109587193,"59":-0.1189616397023201,"60":0.1508674919605255,"61":-0.0053018368780612946,"62":-0.05497933551669121,"63":0.12650038301944733,"64":0.08084052056074142,"65":-0.11872834712266922,"66":-0.0332445427775383,"67":0.16473941504955292,"68":0.19470225274562836,"69":-0.05992830544710159,"70":0.02616046369075775,"71":-0.09603697061538696,"72":-0.023416660726070404,"73":-0.010385026223957539,"74":-0.10751736164093018,"75":-0.0507974810898304,"76":-0.07648108154535294,"77":0.1024504080414772,"78":-0.14620909094810486,"79":-0.16889744997024536,"80":-0.0323592871427536,"81":-0.053268592804670334,"82":-0.12198392301797867,"83":0.0034912514965981245,"84":0.015594854019582272,"85":0.1109326183795929,"86":0.04744822159409523,"87":-0.06925839185714722,"88":0.025143669918179512,"89":0.20147857069969177,"90":0.08639651536941528,"91":0.0039891526103019714,"92":-0.15657009184360504,"93":-0.09780803322792053,"94":-0.08688588440418243,"95":0.12202400714159012,"96":-0.05324273928999901,"97":0.096487857401371,"98":-0.019188158214092255,"99":-0.0928291529417038}},"22":{"bias":-0.12742091715335846,"weights":{"0":0.014562567695975304,"1":0.023375852033495903,"2":-0.18506048619747162,"3":-0.15240171551704407,"4":-0.011171282269060612,"5":0.15860362350940704,"6":0.06717173755168915,"7":0.07648579776287079,"8":0.14550194144248962,"9":0.12080510705709457,"10":-0.18672765791416168,"11":-0.03248516470193863,"12":0.1932341605424881,"13":-0.0331597663462162,"14":-0.09905940294265747,"15":0.16737158596515656,"16":0.0687992200255394,"17":-0.05582571029663086,"18":-0.11500199884176254,"19":-0.0236283540725708,"20":0.19414258003234863,"21":-0.17353028059005737,"22":0.14208009839057922,"23":0.11557243019342422,"24":0.050759416073560715,"25":-0.11864914000034332,"26":0.1255040168762207,"27":0.015178480185568333,"28":0.17475195229053497,"29":0.15821367502212524,"30":-0.06423614919185638,"31":-0.015088789165019989,"32":-0.04326092079281807,"33":-0.043272316455841064,"34":-0.15958049893379211,"35":-0.0984417274594307,"36":-0.0014975167578086257,"37":0.190079003572464,"38":-0.0784071534872055,"39":0.16070592403411865,"40":-0.1313391476869583,"41":-0.05096155405044556,"42":0.04294516518712044,"43":0.09953588247299194,"44":-0.16610832512378693,"45":-0.14959891140460968,"46":-0.10535171627998352,"47":0.06264722347259521,"48":-0.06388193368911743,"49":0.09229320287704468,"50":0.03593560680747032,"51":0.01880546845495701,"52":0.004923480097204447,"53":0.04426971450448036,"54":0.10875902324914932,"55":0.00892107468098402,"56":-0.006104061845690012,"57":0.17140810191631317,"58":-0.05300494283437729,"59":-0.10861644148826599,"60":-0.02945566736161709,"61":-0.16154658794403076,"62":0.11521174758672714,"63":0.05694594606757164,"64":0.15811045467853546,"65":0.1584489643573761,"66":-0.10598107427358627,"67":0.01964041404426098,"68":-0.13110458850860596,"69":0.004499976057559252,"70":0.1546211838722229,"71":0.06206889450550079,"72":0.02111821062862873,"73":-0.12368300557136536,"74":-0.15927739441394806,"75":-0.18306997418403625,"76":-0.13074147701263428,"77":0.15907730162143707,"78":0.08428024500608444,"79":-0.1764836460351944,"80":0.03786119073629379,"81":-0.009377018548548222,"82":-0.10625375062227249,"83":0.16261185705661774,"84":-0.09729592502117157,"85":0.19679054617881775,"86":-0.00600050576031208,"87":-0.05497928708791733,"88":-0.03110410086810589,"89":-0.09809105843305588,"90":-0.026848213747143745,"91":-0.016825417056679726,"92":0.04052192345261574,"93":-0.13799437880516052,"94":-0.18712183833122253,"95":0.04602117836475372,"96":0.02353532984852791,"97":0.016911085695028305,"98":-0.15499158203601837,"99":0.05190393328666687}},"23":{"bias":-0.12221667170524597,"weights":{"0":-0.11525753885507584,"1":0.020880864933133125,"2":0.019750475883483887,"3":0.16298465430736542,"4":-0.13813672959804535,"5":-0.06050611287355423,"6":-0.07264332473278046,"7":-0.19315028190612793,"8":-0.14535827934741974,"9":0.07406211644411087,"10":-0.12222957611083984,"11":-0.15177658200263977,"12":-0.0460052490234375,"13":0.18167418241500854,"14":0.015139581635594368,"15":0.12313058227300644,"16":0.03781380504369736,"17":-0.19985556602478027,"18":0.14067025482654572,"19":-0.09337548911571503,"20":0.05392194166779518,"21":-0.024133913218975067,"22":0.08166325092315674,"23":0.19468571245670319,"24":-0.17872974276542664,"25":0.06291978061199188,"26":0.11767636984586716,"27":-0.06084451824426651,"28":-0.1809447705745697,"29":0.027975473552942276,"30":0.12989889085292816,"31":-0.10187162458896637,"32":-0.0806913673877716,"33":-0.08276330679655075,"34":0.12774841487407684,"35":0.05058642476797104,"36":0.10458894819021225,"37":-0.020030327141284943,"38":0.08250907808542252,"39":-0.15541566908359528,"40":0.12151683121919632,"41":0.19345007836818695,"42":0.1834111213684082,"43":-0.06335560977458954,"44":-0.04429447278380394,"45":-0.09423612803220749,"46":-0.11036182194948196,"47":0.18924283981323242,"48":0.007098505273461342,"49":-0.1302526295185089,"50":-0.04252627119421959,"51":0.16125567257404327,"52":-0.19581829011440277,"53":-0.021557293832302094,"54":-0.0550568513572216,"55":0.10050357133150101,"56":-0.1399654895067215,"57":0.05611016973853111,"58":0.0075022936798632145,"59":-0.043597251176834106,"60":0.05040401592850685,"61":-0.07764244824647903,"62":0.035647664219141006,"63":-0.03129908815026283,"64":0.07494311779737473,"65":-0.057167213410139084,"66":-0.09858673065900803,"67":-0.11977823078632355,"68":-0.158888578414917,"69":-0.1900612860918045,"70":0.16242103278636932,"71":-0.04978813976049423,"72":0.1737598478794098,"73":0.08748550713062286,"74":0.1428167223930359,"75":-0.08778145909309387,"76":0.04270479828119278,"77":-0.1805214136838913,"78":-0.12405967712402344,"79":0.056442175060510635,"80":-0.15482330322265625,"81":-0.046488936990499496,"82":-0.14498643577098846,"83":0.12257596105337143,"84":-0.08064871281385422,"85":0.020343957468867302,"86":0.11554761976003647,"87":-0.10780492424964905,"88":0.01375830452889204,"89":-0.1729186624288559,"90":-0.012981264851987362,"91":0.16404058039188385,"92":0.11422928422689438,"93":0.162843257188797,"94":0.09795661270618439,"95":-0.07625767588615417,"96":0.19035927951335907,"97":-0.048951156437397,"98":-0.16713953018188477,"99":0.15964354574680328}},"24":{"bias":0.1487511247396469,"weights":{"0":0.06797716021537781,"1":-0.11686413735151291,"2":0.09091484546661377,"3":-0.07349663972854614,"4":-0.03191973268985748,"5":0.13865287601947784,"6":-0.08068148046731949,"7":-0.16499730944633484,"8":-0.1870022565126419,"9":-0.024526555091142654,"10":0.19479796290397644,"11":-0.16866762936115265,"12":0.12701918184757233,"13":0.10409346222877502,"14":-0.13712671399116516,"15":-0.13490846753120422,"16":0.06045109033584595,"17":-0.043457094579935074,"18":0.17678587138652802,"19":-0.126169353723526,"20":0.002376948017627001,"21":0.05126659572124481,"22":-0.16883285343647003,"23":0.1784961223602295,"24":-0.1474362313747406,"25":-0.15142616629600525,"26":-0.172726109623909,"27":-0.1440878063440323,"28":0.16812998056411743,"29":-0.05906181409955025,"30":-0.05236927792429924,"31":0.1612549126148224,"32":0.03879152610898018,"33":0.008476009592413902,"34":0.1619402915239334,"35":-0.19331634044647217,"36":-0.1047048568725586,"37":0.09231217950582504,"38":-0.19692352414131165,"39":0.17814862728118896,"40":-0.08398976922035217,"41":-0.05505561828613281,"42":-0.14761802554130554,"43":0.1785195767879486,"44":-0.11690863966941833,"45":-0.15160374343395233,"46":-0.1941496878862381,"47":-0.02810961939394474,"48":0.15519171953201294,"49":-0.06923001259565353,"50":-0.1773660033941269,"51":-0.010981435887515545,"52":-0.134665384888649,"53":0.07207664847373962,"54":0.0589289627969265,"55":-0.1727062463760376,"56":-0.0628291517496109,"57":0.02917933464050293,"58":0.08892877399921417,"59":0.17980827391147614,"60":-0.06455504894256592,"61":-0.08822198957204819,"62":-0.09195894002914429,"63":-0.014458843506872654,"64":-0.04185410961508751,"65":-0.15486815571784973,"66":0.026676170527935028,"67":0.05436946451663971,"68":0.14074689149856567,"69":0.145966038107872,"70":-0.13485145568847656,"71":0.04699844494462013,"72":-0.03359565511345863,"73":0.15086263418197632,"74":-0.09138762950897217,"75":-0.02004115656018257,"76":-0.08612231910228729,"77":0.08635211735963821,"78":0.18141025304794312,"79":-0.11275187134742737,"80":-0.0698273554444313,"81":0.0051270839758217335,"82":0.04925120249390602,"83":0.013940224424004555,"84":-0.15746034681797028,"85":0.009933176450431347,"86":0.09351211786270142,"87":0.10033323615789413,"88":0.059216611087322235,"89":0.07534097880125046,"90":0.13933630287647247,"91":0.08219719678163528,"92":0.1889011114835739,"93":-0.1182815432548523,"94":0.0242382250726223,"95":-0.15245988965034485,"96":0.13969847559928894,"97":0.19532166421413422,"98":0.1548052281141281,"99":-0.15974554419517517}},"25":{"bias":0.08433721959590912,"weights":{"0":-0.09071268141269684,"1":0.14782428741455078,"2":0.015374031849205494,"3":0.052118923515081406,"4":-0.15028347074985504,"5":-0.13816407322883606,"6":0.06115618720650673,"7":-0.008208120241761208,"8":0.009282291866838932,"9":-0.040072157979011536,"10":-0.19336915016174316,"11":-0.05792451649904251,"12":-0.02629348635673523,"13":-0.05965077877044678,"14":-0.10620716959238052,"15":0.1770705133676529,"16":0.16924911737442017,"17":0.05627306178212166,"18":-0.05320349708199501,"19":-0.0030965458136051893,"20":-0.16475579142570496,"21":-0.14686346054077148,"22":-0.1713493913412094,"23":0.15210112929344177,"24":0.1622123122215271,"25":-0.040168412029743195,"26":-0.13709880411624908,"27":-0.1674058735370636,"28":0.024695923551917076,"29":0.018972262740135193,"30":-0.12110216170549393,"31":0.031945351511240005,"32":0.15618211030960083,"33":-0.08536909520626068,"34":-0.03135325014591217,"35":-0.10013224184513092,"36":0.06316361576318741,"37":0.15257865190505981,"38":-0.120520681142807,"39":0.02734096348285675,"40":0.02272171713411808,"41":0.12210831046104431,"42":-0.06460202485322952,"43":0.08889267593622208,"44":-0.00024228381516877562,"45":-0.1268119066953659,"46":-0.0016496321186423302,"47":0.16218729317188263,"48":0.18629547953605652,"49":0.14368072152137756,"50":0.1476290076971054,"51":0.06150863692164421,"52":-0.0003507561341393739,"53":-0.19451108574867249,"54":0.19860316812992096,"55":0.007737308740615845,"56":0.07154634594917297,"57":-0.04693077877163887,"58":0.006899741943925619,"59":0.028716621920466423,"60":-0.0014617451233789325,"61":-0.07980786263942719,"62":0.0033020819537341595,"63":0.017469210550189018,"64":0.07791469246149063,"65":0.11735673993825912,"66":-0.01077638752758503,"67":-0.16852925717830658,"68":-0.15818962454795837,"69":-0.1947656273841858,"70":0.08935239166021347,"71":-0.009874975308775902,"72":0.11468910425901413,"73":-0.10746412724256516,"74":-0.15130890905857086,"75":-0.05760590359568596,"76":0.061949219554662704,"77":-0.1856435239315033,"78":0.1968197375535965,"79":-0.19596852362155914,"80":0.12924544513225555,"81":-0.13039249181747437,"82":-0.1503300815820694,"83":0.03245261311531067,"84":0.14896661043167114,"85":0.10540442913770676,"86":0.011714841239154339,"87":0.17650490999221802,"88":0.16141140460968018,"89":-0.07000938057899475,"90":0.1490776538848877,"91":0.06429574638605118,"92":-0.10578005760908127,"93":-0.003974777180701494,"94":-0.01207505539059639,"95":-0.1961919516324997,"96":-0.0908723846077919,"97":-0.062087710946798325,"98":0.08267538249492645,"99":-0.10119131207466125}},"26":{"bias":0.039545539766550064,"weights":{"0":0.12973293662071228,"1":-0.01484554074704647,"2":0.18745389580726624,"3":-0.18243509531021118,"4":-0.03041844815015793,"5":-0.09445717930793762,"6":0.11050546169281006,"7":-0.05777351185679436,"8":0.06885342299938202,"9":0.08843880891799927,"10":0.16115549206733704,"11":-0.03675876557826996,"12":-0.16808277368545532,"13":-0.043260399252176285,"14":-0.13685907423496246,"15":-0.0020123457070440054,"16":0.1348060518503189,"17":-0.06929241120815277,"18":0.17967453598976135,"19":0.17356464266777039,"20":-0.009621609933674335,"21":-0.18230770528316498,"22":-0.037986062467098236,"23":-0.007208277937024832,"24":0.10643614828586578,"25":0.16018149256706238,"26":-0.0036584297195076942,"27":0.17632567882537842,"28":-0.08183957636356354,"29":0.09060868620872498,"30":-0.1700335443019867,"31":-0.09055890142917633,"32":0.16873027384281158,"33":-0.07640260457992554,"34":-0.10724806040525436,"35":-0.012936455197632313,"36":0.17969992756843567,"37":-0.15152087807655334,"38":-0.04957517609000206,"39":0.13878044486045837,"40":-0.1548246294260025,"41":0.16418203711509705,"42":-0.18935103714466095,"43":-0.11159110814332962,"44":0.10520504415035248,"45":0.15343759953975677,"46":0.10997532308101654,"47":-0.023646540939807892,"48":-0.1878373920917511,"49":0.14948472380638123,"50":0.04511535167694092,"51":-0.09837491810321808,"52":0.10615061223506927,"53":-0.034684184938669205,"54":0.1469690203666687,"55":-0.04308994114398956,"56":-0.18464383482933044,"57":-0.1640414148569107,"58":-0.004117136355489492,"59":0.06781746447086334,"60":-0.03137237951159477,"61":-0.07198125123977661,"62":0.07615365087985992,"63":-0.001875098212622106,"64":-0.17851610481739044,"65":0.11260774731636047,"66":0.04773210361599922,"67":-0.10955885797739029,"68":0.14696845412254333,"69":-0.1691487729549408,"70":0.037582188844680786,"71":0.10913361608982086,"72":0.17281830310821533,"73":0.15105730295181274,"74":0.06708265095949173,"75":-0.1566968560218811,"76":-0.1331835389137268,"77":0.1736358404159546,"78":-0.1571548730134964,"79":-0.027818311005830765,"80":0.12067830562591553,"81":0.12120544910430908,"82":-0.0048765698447823524,"83":0.10859868675470352,"84":0.11540163308382034,"85":0.07877149432897568,"86":-0.010399014689028263,"87":-0.1190202534198761,"88":0.05347408726811409,"89":0.11234260350465775,"90":0.12286411225795746,"91":0.15453781187534332,"92":-0.18006493151187897,"93":-0.11517098546028137,"94":0.008279112167656422,"95":-0.06233777850866318,"96":0.15002597868442535,"97":-0.1642816662788391,"98":-0.20321477949619293,"99":0.18358024954795837}},"27":{"bias":-0.13302268087863922,"weights":{"0":-0.13897927105426788,"1":0.08857925981283188,"2":-0.15388254821300507,"3":0.19450774788856506,"4":-0.0870201364159584,"5":0.04529585689306259,"6":-0.09979799389839172,"7":-0.14017893373966217,"8":-0.06321318447589874,"9":-0.03339226171374321,"10":0.1316937357187271,"11":0.11814633756875992,"12":0.1170416921377182,"13":0.17370767891407013,"14":0.18322932720184326,"15":-0.05253288149833679,"16":-0.16008733212947845,"17":0.07488077878952026,"18":-0.14710938930511475,"19":0.09003519266843796,"20":-0.03762848302721977,"21":-0.18565933406352997,"22":-0.04474909231066704,"23":0.18562963604927063,"24":-0.19657884538173676,"25":0.03006928041577339,"26":0.09053093940019608,"27":-0.11033164709806442,"28":-0.13400885462760925,"29":-0.05887589976191521,"30":-0.10090741515159607,"31":-0.16247399151325226,"32":0.01726149208843708,"33":0.0777520090341568,"34":-0.03910253196954727,"35":0.038181912153959274,"36":-0.16766047477722168,"37":0.07664065062999725,"38":-0.06805399060249329,"39":0.04973863065242767,"40":-0.13835199177265167,"41":0.06554967164993286,"42":-0.14456942677497864,"43":0.017595315352082253,"44":-0.07991483807563782,"45":-0.05178413167595863,"46":0.07584113627672195,"47":-0.08606403321027756,"48":-0.1978413313627243,"49":0.0004210560000501573,"50":-0.13482387363910675,"51":0.06036932393908501,"52":-0.1365949660539627,"53":0.12524963915348053,"54":-0.16823795437812805,"55":-0.019530493766069412,"56":0.12860628962516785,"57":0.029739918187260628,"58":-0.08277388662099838,"59":-0.02021588385105133,"60":-0.06821431964635849,"61":-0.1630256623029709,"62":0.012854638509452343,"63":0.19456203281879425,"64":0.16076675057411194,"65":-0.18913917243480682,"66":-0.074467234313488,"67":-0.10248841345310211,"68":-0.08604693412780762,"69":0.12289693206548691,"70":-0.06653589010238647,"71":0.04025684669613838,"72":-0.06874831765890121,"73":0.07318185269832611,"74":-0.10116595029830933,"75":-0.0756264328956604,"76":-0.051480818539857864,"77":0.17455340921878815,"78":-0.14739035069942474,"79":-0.14757782220840454,"80":0.09156809002161026,"81":-0.11377396434545517,"82":0.07207439094781876,"83":-0.025487292557954788,"84":0.07875175774097443,"85":0.07142183929681778,"86":0.03092113882303238,"87":-0.04168364033102989,"88":-0.12317449599504471,"89":0.0367245152592659,"90":0.12943007051944733,"91":0.1985013633966446,"92":0.12407155334949493,"93":0.13773152232170105,"94":-0.09203041344881058,"95":-0.17846205830574036,"96":0.04308697208762169,"97":-0.040312957018613815,"98":0.04529748484492302,"99":-0.021672815084457397}},"28":{"bias":-0.13743841648101807,"weights":{"0":-0.0338401235640049,"1":-0.18911288678646088,"2":-0.1798994094133377,"3":0.1304464489221573,"4":-0.011092398315668106,"5":-0.04399393871426582,"6":-0.1685848981142044,"7":0.0563734732568264,"8":0.18640302121639252,"9":0.07280202209949493,"10":0.18604981899261475,"11":-0.07137468457221985,"12":-0.02269229292869568,"13":0.17057588696479797,"14":-0.15889018774032593,"15":-0.1604163944721222,"16":0.09465406835079193,"17":-0.07257239520549774,"18":0.09093984216451645,"19":0.04927334934473038,"20":0.15002386271953583,"21":0.13391031324863434,"22":0.19616276025772095,"23":-0.1775267869234085,"24":-0.043825309723615646,"25":-0.03927822411060333,"26":-0.08629073947668076,"27":-0.03666809946298599,"28":-0.005654798820614815,"29":-0.015139535069465637,"30":0.040479566901922226,"31":-0.14175693690776825,"32":-0.07227630168199539,"33":-0.14395426213741302,"34":0.12149375677108765,"35":-0.12214420735836029,"36":-0.16032472252845764,"37":-0.1534033864736557,"38":0.16512998938560486,"39":0.09592330455780029,"40":0.05043426528573036,"41":-0.14006167650222778,"42":-0.10656677186489105,"43":0.15794196724891663,"44":0.0953906700015068,"45":0.03625709190964699,"46":0.04095366224646568,"47":0.16867461800575256,"48":-0.028232717886567116,"49":0.08095452189445496,"50":-0.09986584633588791,"51":-0.16018915176391602,"52":0.0864097997546196,"53":-0.1895037293434143,"54":0.18425792455673218,"55":-0.01358236838132143,"56":-0.1243436262011528,"57":-0.017298167571425438,"58":-0.13285505771636963,"59":0.1332273930311203,"60":-0.058492958545684814,"61":0.0952114537358284,"62":0.04111747816205025,"63":0.03773511201143265,"64":0.12006299197673798,"65":0.17017608880996704,"66":0.09937362372875214,"67":0.08882727473974228,"68":-0.11015105992555618,"69":-0.1279088854789734,"70":-0.12060923874378204,"71":-0.15684878826141357,"72":0.12267965823411942,"73":0.1342269480228424,"74":0.16834822297096252,"75":0.010863834992051125,"76":0.05183599144220352,"77":-0.07977016270160675,"78":0.1798189878463745,"79":-0.1457698941230774,"80":-0.14649364352226257,"81":0.06951410323381424,"82":-0.17033760249614716,"83":-0.15545052289962769,"84":-0.06631829589605331,"85":0.023753179237246513,"86":0.06933341175317764,"87":0.07822965085506439,"88":0.1583537608385086,"89":-0.15542523562908173,"90":-0.09710688889026642,"91":-0.19477465748786926,"92":0.1116015687584877,"93":-0.185183584690094,"94":-0.07315530627965927,"95":0.14954154193401337,"96":-0.09831859171390533,"97":-0.05156869441270828,"98":0.13596577942371368,"99":-0.13759885728359222}},"29":{"bias":-0.08078442513942719,"weights":{"0":0.05588504672050476,"1":-0.07609343528747559,"2":-0.08629047870635986,"3":0.11571548134088516,"4":0.17994751036167145,"5":-0.08985889703035355,"6":-0.15310190618038177,"7":-0.11738711595535278,"8":0.022513998672366142,"9":-0.00970723107457161,"10":0.020944762974977493,"11":0.030205510556697845,"12":0.09697797149419785,"13":-0.10423710942268372,"14":-0.0581386424601078,"15":0.07533145695924759,"16":0.03682714328169823,"17":-0.07152406871318817,"18":0.004230865277349949,"19":0.050958406180143356,"20":-0.18417347967624664,"21":-0.17463460564613342,"22":-0.06281027942895889,"23":0.07554232329130173,"24":-0.003051186678931117,"25":-0.0324740968644619,"26":-0.04633323475718498,"27":0.19839972257614136,"28":-0.13432814180850983,"29":-0.12936972081661224,"30":0.028048845008015633,"31":0.1645413190126419,"32":-0.015056735835969448,"33":0.14966346323490143,"34":-0.0969821885228157,"35":0.18753206729888916,"36":0.06589464098215103,"37":-0.06676187366247177,"38":-0.00644983584061265,"39":0.16089946031570435,"40":-0.0498540922999382,"41":-0.07822419703006744,"42":0.045315761119127274,"43":-0.12016736716032028,"44":0.15691858530044556,"45":-0.1546630561351776,"46":-0.11950894445180893,"47":-0.14451350271701813,"48":0.05527883023023605,"49":0.118948794901371,"50":-0.07213414460420609,"51":-0.025873025879263878,"52":0.10170941799879074,"53":-0.05781888961791992,"54":0.1406141221523285,"55":-0.05449530482292175,"56":-0.09374105930328369,"57":-0.1948181837797165,"58":0.05254948139190674,"59":0.16061152517795563,"60":-0.19811837375164032,"61":0.063338503241539,"62":-0.17581093311309814,"63":-0.1757059097290039,"64":0.14518505334854126,"65":-0.17715398967266083,"66":-0.1278088390827179,"67":-0.03415174409747124,"68":-0.09875479340553284,"69":-0.0024900068528950214,"70":-0.1536577045917511,"71":-0.04159604385495186,"72":0.19072650372982025,"73":-0.05739946290850639,"74":0.1883799284696579,"75":-0.10879702866077423,"76":-0.11185559630393982,"77":0.11299853026866913,"78":-0.09708882868289948,"79":-0.012583447620272636,"80":-0.16243478655815125,"81":-0.1737043708562851,"82":-0.0020671936217695475,"83":0.0049789072945714,"84":0.06105755269527435,"85":-0.0815250501036644,"86":-0.08651180565357208,"87":-0.18669483065605164,"88":-0.02284243516623974,"89":-0.18423177301883698,"90":0.055553194135427475,"91":0.0673321783542633,"92":0.0168108269572258,"93":0.05394216626882553,"94":-0.11188940703868866,"95":-0.12975271046161652,"96":0.07331156730651855,"97":0.02829553559422493,"98":-0.03979700431227684,"99":0.0364866741001606}},"30":{"bias":-0.03867297247052193,"weights":{"0":0.15874803066253662,"1":-0.05827096849679947,"2":0.13399745523929596,"3":-0.16570746898651123,"4":0.1599859893321991,"5":-0.06709900498390198,"6":0.00880488008260727,"7":-0.1609041541814804,"8":-0.17663195729255676,"9":-0.041735369712114334,"10":-0.07575999945402145,"11":-0.02132636494934559,"12":-0.048282984644174576,"13":-0.058726243674755096,"14":0.05476846918463707,"15":-0.18347451090812683,"16":-0.04378191754221916,"17":0.10741214454174042,"18":-0.1378898173570633,"19":0.044789742678403854,"20":-0.1736394166946411,"21":0.08056044578552246,"22":-0.06896314769983292,"23":0.14275196194648743,"24":0.07814955711364746,"25":0.101969875395298,"26":-0.1060665026307106,"27":0.03138185665011406,"28":-0.10097270458936691,"29":0.08153598755598068,"30":-0.14644430577754974,"31":0.1898370087146759,"32":-0.04951988160610199,"33":-0.0937703549861908,"34":-0.06288165599107742,"35":-0.17790670692920685,"36":0.1644817292690277,"37":-0.10906724631786346,"38":-0.20047949254512787,"39":-0.05385889858007431,"40":0.1823839396238327,"41":0.05282442271709442,"42":0.052803847938776016,"43":0.1319454163312912,"44":0.05145866796374321,"45":0.050688110291957855,"46":-0.14522497355937958,"47":-0.07582099735736847,"48":-0.15780700743198395,"49":0.19195060431957245,"50":0.06899932771921158,"51":-0.008954125456511974,"52":-0.03356931731104851,"53":-0.12005786597728729,"54":0.16296687722206116,"55":0.09433870762586594,"56":0.1410539746284485,"57":0.09867434203624725,"58":-0.1167958676815033,"59":0.02755364030599594,"60":-0.1449626386165619,"61":-0.0932890847325325,"62":0.06809008121490479,"63":-0.17688676714897156,"64":0.04585016146302223,"65":0.1112884059548378,"66":0.19472981989383698,"67":0.08785032480955124,"68":-0.18175505101680756,"69":0.11796511709690094,"70":-0.10884620994329453,"71":0.027033701539039612,"72":-0.15596091747283936,"73":0.14699748158454895,"74":0.17621856927871704,"75":0.14951856434345245,"76":0.07040751725435257,"77":0.0948215201497078,"78":-0.15200099349021912,"79":0.14104700088500977,"80":0.05264494940638542,"81":-0.12720349431037903,"82":0.11925151944160461,"83":0.014076699502766132,"84":0.005522133316844702,"85":0.04771846905350685,"86":-0.15102925896644592,"87":-0.16042879223823547,"88":0.008891569450497627,"89":0.06654922664165497,"90":-0.036089975386857986,"91":-0.15681244432926178,"92":0.10170812904834747,"93":0.18103961646556854,"94":-0.12551431357860565,"95":0.08003351837396622,"96":0.08259125053882599,"97":0.1822306513786316,"98":0.03988470882177353,"99":-0.022480180487036705}},"31":{"bias":-0.17544126510620117,"weights":{"0":-0.023406079038977623,"1":-0.01644575409591198,"2":0.13787171244621277,"3":0.09174270927906036,"4":0.04859352484345436,"5":0.18267330527305603,"6":0.17898976802825928,"7":-0.16309069097042084,"8":0.019485218450427055,"9":0.021645981818437576,"10":0.10961947590112686,"11":0.18600891530513763,"12":-0.1984461545944214,"13":0.09296642243862152,"14":0.12033066898584366,"15":0.175936758518219,"16":-0.0629633441567421,"17":-0.09760671108961105,"18":-0.06302069127559662,"19":0.18971368670463562,"20":-0.15996406972408295,"21":0.06246170401573181,"22":-0.011453808285295963,"23":-0.0034398376010358334,"24":0.008055021055042744,"25":-0.18765075504779816,"26":0.0815952867269516,"27":-0.13869687914848328,"28":-0.07163754105567932,"29":0.11784631758928299,"30":-0.06296417117118835,"31":0.17584578692913055,"32":0.14666666090488434,"33":0.18499049544334412,"34":0.0685110092163086,"35":-0.1659514158964157,"36":0.0018563468474894762,"37":-0.09987404942512512,"38":-0.12873710691928864,"39":0.19334842264652252,"40":0.08748967200517654,"41":-0.0973655954003334,"42":-0.030717039480805397,"43":-0.0903821587562561,"44":-0.0382499024271965,"45":0.0926072970032692,"46":0.16964618861675262,"47":-0.17255538702011108,"48":0.10634160041809082,"49":0.030647175386548042,"50":-0.009732174687087536,"51":-0.16642718017101288,"52":-0.016097627580165863,"53":0.19194002449512482,"54":-0.012292852625250816,"55":0.09497325867414474,"56":0.13631029427051544,"57":-0.02455434948205948,"58":0.029131585732102394,"59":-0.0044610146433115005,"60":0.15776582062244415,"61":0.14361245930194855,"62":-0.06977767497301102,"63":-0.04869908466935158,"64":-0.0024799839593470097,"65":0.14749783277511597,"66":-0.18470792472362518,"67":-0.011371109634637833,"68":0.18965700268745422,"69":-0.17356565594673157,"70":-0.09254848212003708,"71":-0.09652844071388245,"72":-0.18398429453372955,"73":0.01439607609063387,"74":-0.03372012823820114,"75":0.08688989281654358,"76":0.07119351625442505,"77":0.13852286338806152,"78":-0.011244003660976887,"79":-0.15653014183044434,"80":0.15564072132110596,"81":0.10427231341600418,"82":0.08969796448945999,"83":0.12469875812530518,"84":-0.059913553297519684,"85":0.1834235042333603,"86":-0.11001620441675186,"87":0.08735038340091705,"88":-0.1607935130596161,"89":-0.11400065571069717,"90":-0.03851376473903656,"91":-0.15678580105304718,"92":-0.13744030892848969,"93":-0.19603048264980316,"94":0.16653341054916382,"95":0.14687810838222504,"96":0.13001641631126404,"97":0.10830019414424896,"98":0.14336684346199036,"99":0.17695973813533783}},"32":{"bias":0.048307523131370544,"weights":{"0":-0.07992765307426453,"1":0.12191739678382874,"2":0.03066839836537838,"3":-0.0023989989422261715,"4":0.10765543580055237,"5":0.06900404393672943,"6":-0.1991220861673355,"7":0.004236630629748106,"8":-0.017149316146969795,"9":0.09560998529195786,"10":0.18938523530960083,"11":-0.07759599387645721,"12":-0.13737274706363678,"13":-0.09433184564113617,"14":-0.08911366760730743,"15":0.07199754565954208,"16":-0.02165910415351391,"17":-0.024344487115740776,"18":-0.06158216670155525,"19":0.17115268111228943,"20":0.07789989560842514,"21":-0.17527687549591064,"22":0.00017572402430232614,"23":-0.06574530899524689,"24":-0.1861274391412735,"25":0.08218470215797424,"26":-0.11964309960603714,"27":-0.1107029840350151,"28":0.1145501360297203,"29":0.15211158990859985,"30":-0.05056522786617279,"31":0.07647211104631424,"32":0.19244566559791565,"33":0.13762226700782776,"34":0.04383200779557228,"35":-0.06039250269532204,"36":0.1252470314502716,"37":0.15830065310001373,"38":-0.12073415517807007,"39":0.1275940090417862,"40":0.0304839126765728,"41":0.1195492371916771,"42":0.012327542528510094,"43":0.09238291531801224,"44":-0.13298837840557098,"45":0.1402405947446823,"46":0.08142654597759247,"47":-0.02296241745352745,"48":-0.009528565220534801,"49":0.16973285377025604,"50":0.09574557840824127,"51":0.0799894630908966,"52":0.12566357851028442,"53":-0.017925402149558067,"54":0.1380215585231781,"55":-0.1411110907793045,"56":-0.03807014226913452,"57":-0.09060528874397278,"58":0.024476293474435806,"59":-0.02882084622979164,"60":0.03468821942806244,"61":-0.19545935094356537,"62":-0.028871679678559303,"63":0.15261805057525635,"64":-0.017255675047636032,"65":-0.0407022126019001,"66":0.09939160943031311,"67":0.11043426394462585,"68":0.148846834897995,"69":0.08529113978147507,"70":-0.11638867855072021,"71":0.15638652443885803,"72":0.028586335480213165,"73":-0.07496966421604156,"74":0.1205320805311203,"75":0.15974684059619904,"76":0.11753342300653458,"77":0.019155673682689667,"78":0.0612931102514267,"79":-0.1792667806148529,"80":0.19292068481445312,"81":0.0716165155172348,"82":0.07154694199562073,"83":-0.16556352376937866,"84":0.18322071433067322,"85":0.12347659468650818,"86":0.12812387943267822,"87":-0.17896828055381775,"88":0.11028191447257996,"89":-0.1978248655796051,"90":-0.13948827981948853,"91":0.1962929219007492,"92":0.08352676033973694,"93":-0.03364205360412598,"94":-0.07409950345754623,"95":0.0022697895765304565,"96":-0.013205750845372677,"97":-0.013446471653878689,"98":-0.16685165464878082,"99":0.1457863748073578}},"33":{"bias":-0.0994936153292656,"weights":{"0":-0.11181893944740295,"1":-0.013133751228451729,"2":0.16404110193252563,"3":0.09456959366798401,"4":0.12386327236890793,"5":-0.050979021936655045,"6":0.07489410787820816,"7":0.046931833028793335,"8":0.1611456722021103,"9":0.05973410978913307,"10":0.17745979130268097,"11":-0.17365232110023499,"12":0.02079392410814762,"13":0.09034231305122375,"14":0.055355336517095566,"15":-0.1717735081911087,"16":-0.08465537428855896,"17":-0.16797864437103271,"18":0.10541234910488129,"19":0.11944296211004257,"20":-0.02327103726565838,"21":0.012527345679700375,"22":-0.038298796862363815,"23":0.16305071115493774,"24":-0.15763965249061584,"25":0.19595952332019806,"26":0.19423358142375946,"27":-0.0713912844657898,"28":0.057907626032829285,"29":-0.09627906233072281,"30":0.12699156999588013,"31":0.05583272501826286,"32":-0.15348249673843384,"33":-0.15238158404827118,"34":0.16999579966068268,"35":0.19721342623233795,"36":-0.006929175928235054,"37":0.1904716193675995,"38":0.11582215130329132,"39":-0.18476241827011108,"40":0.14361616969108582,"41":0.00494985980913043,"42":-0.03102594055235386,"43":-0.00752733089029789,"44":-0.17236831784248352,"45":-0.19674032926559448,"46":0.1393583118915558,"47":0.03470715135335922,"48":-0.13013264536857605,"49":0.038700319826602936,"50":0.1622471809387207,"51":-0.07262946665287018,"52":0.05263865739107132,"53":-0.03869407996535301,"54":-0.061069756746292114,"55":-0.07059111446142197,"56":-0.06706329435110092,"57":-0.016756055876612663,"58":-0.05905311927199364,"59":-0.09833161532878876,"60":0.07976099103689194,"61":0.058314476162195206,"62":0.05782359093427658,"63":0.12598729133605957,"64":0.15758492052555084,"65":-0.06256671249866486,"66":0.07070691138505936,"67":-0.1438903510570526,"68":-0.09812735766172409,"69":-0.05382970720529556,"70":0.17469125986099243,"71":-0.0323604978621006,"72":-0.0888359546661377,"73":0.009660582058131695,"74":0.01993696391582489,"75":-0.011189083568751812,"76":0.020664047449827194,"77":-0.1583317369222641,"78":-0.1300271600484848,"79":-0.17853616178035736,"80":0.11558296531438828,"81":0.07736396044492722,"82":-0.14311517775058746,"83":0.18120914697647095,"84":0.03777233883738518,"85":-0.1780703216791153,"86":-0.15623478591442108,"87":-0.06594276428222656,"88":-0.043875884264707565,"89":-0.1252390742301941,"90":-0.04771722853183746,"91":0.06744807958602905,"92":-0.10308369994163513,"93":0.12064998596906662,"94":0.05701824650168419,"95":0.18024101853370667,"96":-0.013932797126471996,"97":-0.12366970628499985,"98":0.19154320657253265,"99":-0.011896326206624508}},"34":{"bias":0.125409796833992,"weights":{"0":-0.11486465483903885,"1":0.13459646701812744,"2":-0.03132357448339462,"3":0.10301528126001358,"4":0.02268139272928238,"5":-0.07100233435630798,"6":0.04374620318412781,"7":-0.02403455227613449,"8":0.19896471500396729,"9":-0.1007414236664772,"10":0.11353901773691177,"11":-0.10442794859409332,"12":-0.0071734096854925156,"13":-0.053039804100990295,"14":-0.10258150845766068,"15":0.12378716468811035,"16":-0.15838505327701569,"17":-0.16799329221248627,"18":0.10504358261823654,"19":-0.014417743310332298,"20":0.17886982858181,"21":-0.042777106165885925,"22":0.020796097815036774,"23":0.1677853912115097,"24":-0.18040940165519714,"25":0.02218649350106716,"26":0.0035994246136397123,"27":0.01829339936375618,"28":-0.08001185208559036,"29":-0.15157261490821838,"30":0.06875137984752655,"31":-0.143831267952919,"32":0.18849878013134003,"33":-0.15107277035713196,"34":-0.1447981595993042,"35":0.16531431674957275,"36":0.017504854127764702,"37":-0.10599984973669052,"38":-0.08676160126924515,"39":0.011494939215481281,"40":-0.13961592316627502,"41":-0.13171523809432983,"42":-0.04433557018637657,"43":0.12695404887199402,"44":0.06140025705099106,"45":0.06409312039613724,"46":-0.02320653572678566,"47":0.05362723022699356,"48":0.11643097549676895,"49":0.08227234333753586,"50":0.009918706491589546,"51":-0.10284977406263351,"52":0.0848517194390297,"53":-0.1706146001815796,"54":-0.12206004559993744,"55":-0.053107850253582,"56":0.07841840386390686,"57":-0.17683836817741394,"58":-0.19724084436893463,"59":-0.17644605040550232,"60":-0.07080651074647903,"61":0.15451909601688385,"62":0.1999722272157669,"63":-0.035471729934215546,"64":-0.181971937417984,"65":-0.19569051265716553,"66":0.03987860307097435,"67":-0.17888988554477692,"68":-0.10688044875860214,"69":0.10634587705135345,"70":-0.1467640995979309,"71":0.12534750998020172,"72":0.17943115532398224,"73":-0.11591657996177673,"74":0.1404654085636139,"75":-0.05413029342889786,"76":0.17752093076705933,"77":-0.11778751015663147,"78":0.11569896340370178,"79":-0.02547840029001236,"80":0.11735522001981735,"81":-0.13926070928573608,"82":-0.06245275214314461,"83":-0.05703023821115494,"84":0.03477141633629799,"85":0.18500393629074097,"86":0.05677952244877815,"87":-0.0507931150496006,"88":-0.1632264405488968,"89":-0.00737288361415267,"90":0.1792740523815155,"91":0.06967122107744217,"92":-0.19463294744491577,"93":-0.12423639744520187,"94":-0.14867867529392242,"95":-0.15824931859970093,"96":0.07929892838001251,"97":-0.165529265999794,"98":-0.1700502336025238,"99":0.03652825579047203}},"35":{"bias":0.02483675628900528,"weights":{"0":-0.19368451833724976,"1":0.13089224696159363,"2":0.12175582349300385,"3":-0.00921094510704279,"4":-0.18209727108478546,"5":0.13821032643318176,"6":-0.030347676947712898,"7":-0.049269065260887146,"8":-0.14822547137737274,"9":-0.08166123926639557,"10":-0.14228090643882751,"11":0.17925255000591278,"12":-0.003999707289040089,"13":0.010475498624145985,"14":0.16902026534080505,"15":0.01887635327875614,"16":-0.059384509921073914,"17":0.09401894360780716,"18":0.1308089941740036,"19":-0.03118067979812622,"20":0.13625682890415192,"21":-0.10166335105895996,"22":-0.04456484317779541,"23":0.1758989542722702,"24":0.16352707147598267,"25":0.05256272479891777,"26":0.11867385357618332,"27":0.14811673760414124,"28":-0.0037078619934618473,"29":-0.011787116527557373,"30":-0.016774367541074753,"31":-0.0993565171957016,"32":-0.08027573674917221,"33":-0.029666779562830925,"34":0.18197418749332428,"35":0.15047819912433624,"36":0.1788461059331894,"37":0.1526307463645935,"38":0.17768338322639465,"39":-0.056353017687797546,"40":-0.08206268399953842,"41":0.06500093638896942,"42":0.007316192612051964,"43":0.13295789062976837,"44":0.10654371231794357,"45":0.10835451632738113,"46":0.19847597181797028,"47":0.15234678983688354,"48":-0.16201622784137726,"49":-0.029996315017342567,"50":0.15127220749855042,"51":-0.08749553561210632,"52":0.036287304013967514,"53":-0.1736348569393158,"54":0.014890407212078571,"55":-0.10808491706848145,"56":-0.022626351565122604,"57":-0.14341217279434204,"58":-0.18336041271686554,"59":-0.16319352388381958,"60":-0.11368633806705475,"61":0.015702366828918457,"62":-0.20194002985954285,"63":-0.20119847357273102,"64":-0.09559900313615799,"65":-0.025378085672855377,"66":-0.014535531401634216,"67":-0.12550096213817596,"68":-0.1615675836801529,"69":0.0985553115606308,"70":-0.13889935612678528,"71":0.07747532427310944,"72":-0.11800595372915268,"73":0.011233942583203316,"74":0.18423543870449066,"75":0.10318032652139664,"76":-0.19436971843242645,"77":-0.051817551255226135,"78":0.0425405353307724,"79":0.03332560136914253,"80":0.02406678907573223,"81":-0.17144760489463806,"82":-0.009474688209593296,"83":0.09003487974405289,"84":0.0312604121863842,"85":0.09045621752738953,"86":0.05257991701364517,"87":0.17193962633609772,"88":-0.018653634935617447,"89":0.06931723654270172,"90":0.1439337283372879,"91":-0.023141764104366302,"92":-0.15053123235702515,"93":-0.048781950026750565,"94":0.18308259546756744,"95":-0.054675888270139694,"96":0.07860374450683594,"97":0.15802450478076935,"98":-0.0737500935792923,"99":-0.07609926164150238}},"36":{"bias":-0.1061844453215599,"weights":{"0":0.010967639274895191,"1":-0.19001273810863495,"2":0.19594882428646088,"3":0.08415010571479797,"4":0.0016943131340667605,"5":-0.10021763294935226,"6":0.1423024833202362,"7":0.19909590482711792,"8":-0.051443617790937424,"9":0.11473774164915085,"10":-0.08163531124591827,"11":-0.11773323267698288,"12":-0.05347131937742233,"13":-0.1476949006319046,"14":-0.19889602065086365,"15":0.18006278574466705,"16":-0.10040902346372604,"17":-0.08668059855699539,"18":0.16060656309127808,"19":-0.08844678103923798,"20":0.1359333097934723,"21":-0.04960111901164055,"22":0.08706334233283997,"23":-0.11033421009778976,"24":-0.13427932560443878,"25":0.12681061029434204,"26":-0.1557656228542328,"27":0.14908094704151154,"28":0.08764129877090454,"29":-0.008222602307796478,"30":0.027197187766432762,"31":-0.11697602272033691,"32":0.10467183589935303,"33":0.12437829375267029,"34":0.08844371140003204,"35":0.09399651736021042,"36":0.05970889329910278,"37":0.027683211490511894,"38":-0.07491669058799744,"39":0.07095123827457428,"40":-0.14865046739578247,"41":0.15916574001312256,"42":0.03776165843009949,"43":0.11777313798666,"44":-0.039204973727464676,"45":0.009418769739568233,"46":0.17169995605945587,"47":-0.12328040599822998,"48":0.06679438054561615,"49":-0.12625813484191895,"50":-0.04060966148972511,"51":-0.15617689490318298,"52":0.06805338710546494,"53":-0.12887424230575562,"54":0.19664379954338074,"55":-0.07483596354722977,"56":-0.17484542727470398,"57":0.14897270500659943,"58":0.046308115124702454,"59":0.14230401813983917,"60":0.04543896019458771,"61":-0.19094866514205933,"62":-0.1712995022535324,"63":-0.0657254084944725,"64":0.028976690024137497,"65":-0.125579372048378,"66":0.18137402832508087,"67":0.1920560598373413,"68":0.1919591873884201,"69":0.16288462281227112,"70":-0.08376578986644745,"71":0.011940117925405502,"72":-0.006967445369809866,"73":-0.07759350538253784,"74":-0.18399584293365479,"75":-0.04449824243783951,"76":0.11528792232275009,"77":0.10108650475740433,"78":-0.18122875690460205,"79":0.02571914903819561,"80":-0.00867942813783884,"81":0.1238647997379303,"82":0.1646752953529358,"83":-0.013968867249786854,"84":-0.05393165349960327,"85":-0.18822015821933746,"86":-0.06178300827741623,"87":-0.13353857398033142,"88":-0.05337587371468544,"89":0.06337549537420273,"90":0.1644737273454666,"91":0.06085122376680374,"92":0.11536537855863571,"93":-0.030682461336255074,"94":-0.0026631448417901993,"95":-0.1681579053401947,"96":-0.11165095120668411,"97":0.12356948107481003,"98":-0.05736721679568291,"99":0.042109038680791855}},"37":{"bias":0.06295543164014816,"weights":{"0":-0.08648013323545456,"1":-0.14875049889087677,"2":0.1873546987771988,"3":0.09445405751466751,"4":-0.11336320638656616,"5":-0.03374696150422096,"6":0.007749518379569054,"7":0.11090302467346191,"8":0.07992984354496002,"9":-0.13975581526756287,"10":-0.14227618277072906,"11":-0.05024823546409607,"12":-0.19063608348369598,"13":0.004697977565228939,"14":-0.19757112860679626,"15":0.15769299864768982,"16":-0.17962893843650818,"17":0.14033499360084534,"18":-0.11046452820301056,"19":-0.029895564541220665,"20":0.16664795577526093,"21":-0.15801049768924713,"22":-0.15307600796222687,"23":-0.029017604887485504,"24":-0.06924258172512054,"25":0.14173190295696259,"26":0.08085565268993378,"27":-0.03646445274353027,"28":-0.15542441606521606,"29":0.06528964638710022,"30":0.03336282819509506,"31":0.01346589159220457,"32":-0.11313173174858093,"33":-0.11828704923391342,"34":-0.006311849225312471,"35":0.17304420471191406,"36":0.09293556213378906,"37":-0.02900298684835434,"38":0.11487404257059097,"39":0.03784598037600517,"40":-0.20084214210510254,"41":0.127388596534729,"42":0.06106113642454147,"43":-0.09964629262685776,"44":0.07163082808256149,"45":-0.1999543309211731,"46":0.1740931123495102,"47":-0.029598619788885117,"48":0.16543865203857422,"49":0.03537249192595482,"50":0.025843730196356773,"51":0.050533659756183624,"52":-0.14211027324199677,"53":-0.18192562460899353,"54":-0.19776372611522675,"55":-0.12685684859752655,"56":0.15593069791793823,"57":-0.17584627866744995,"58":0.0737733244895935,"59":-0.025399349629878998,"60":-0.030704747885465622,"61":-0.15691961348056793,"62":0.12784355878829956,"63":-0.11224521696567535,"64":0.0785706490278244,"65":-0.19083358347415924,"66":0.13870806992053986,"67":0.023284059017896652,"68":0.10661456733942032,"69":0.09947048872709274,"70":-0.19277505576610565,"71":-0.02439332939684391,"72":0.19536550343036652,"73":0.13959714770317078,"74":0.04720224812626839,"75":-0.09941292554140091,"76":0.017335673794150352,"77":0.1671558916568756,"78":-0.048168960958719254,"79":-0.032110970467329025,"80":0.1911991983652115,"81":-0.054055485874414444,"82":0.14291280508041382,"83":0.0464588962495327,"84":-0.04248376563191414,"85":0.05301554501056671,"86":0.11949843913316727,"87":-0.05988543480634689,"88":-0.0576942004263401,"89":-0.05296536162495613,"90":0.11454988270998001,"91":0.0980205088853836,"92":-0.05199810117483139,"93":0.001587943290360272,"94":0.05572332441806793,"95":0.010171350091695786,"96":0.13966593146324158,"97":-0.14319193363189697,"98":0.13186772167682648,"99":-0.09184108674526215}},"38":{"bias":-0.05211059749126434,"weights":{"0":-0.1598854511976242,"1":0.1220778077840805,"2":-0.017147550359368324,"3":-0.015604942105710506,"4":0.1495334357023239,"5":0.007161715067923069,"6":0.06704748421907425,"7":0.03219681978225708,"8":0.07073763012886047,"9":0.15020541846752167,"10":0.19510941207408905,"11":0.028620732948184013,"12":0.0914396345615387,"13":-0.1749877631664276,"14":-0.16286922991275787,"15":-0.0730748251080513,"16":-0.1451491266489029,"17":0.025539899244904518,"18":-0.08618266135454178,"19":0.12895117700099945,"20":-0.051592934876680374,"21":-0.003209666581824422,"22":-0.16386304795742035,"23":0.11224478483200073,"24":0.11549049615859985,"25":0.115794338285923,"26":0.0866704061627388,"27":-0.16733111441135406,"28":0.16950854659080505,"29":-0.09848366677761078,"30":0.04669249802827835,"31":-0.18642191588878632,"32":-0.10939658433198929,"33":-0.13029848039150238,"34":-0.12109800428152084,"35":0.08015762269496918,"36":-0.17957563698291779,"37":0.14610719680786133,"38":-0.07171779125928879,"39":-0.011952937580645084,"40":0.12996235489845276,"41":0.19625310599803925,"42":0.07860822230577469,"43":0.025815116241574287,"44":0.19926586747169495,"45":0.19025929272174835,"46":0.031100595369935036,"47":0.11499236524105072,"48":0.029409438371658325,"49":0.0028550075367093086,"50":-0.16860584914684296,"51":-0.023974182084202766,"52":-0.17552992701530457,"53":0.09379059076309204,"54":0.1376783698797226,"55":0.1271824985742569,"56":-0.07009779661893845,"57":0.17846834659576416,"58":-0.10342827439308167,"59":-0.039141226559877396,"60":-0.1323566883802414,"61":-0.10339242964982986,"62":-0.03870398551225662,"63":-0.17835912108421326,"64":-0.1861254721879959,"65":-0.02368219755589962,"66":-0.07836893945932388,"67":0.1525825560092926,"68":0.05441572517156601,"69":0.18682827055454254,"70":-0.059400204569101334,"71":0.133876770734787,"72":-0.0064745401032269,"73":-0.06606552749872208,"74":0.046334680169820786,"75":-0.11164054274559021,"76":-0.03880692645907402,"77":0.1823747605085373,"78":-0.1750757247209549,"79":-0.19102880358695984,"80":0.07074052095413208,"81":-0.06335678696632385,"82":-0.016063233837485313,"83":0.06802836805582047,"84":-0.17979232966899872,"85":0.05867714807391167,"86":0.11482507735490799,"87":0.12927256524562836,"88":-0.08793818205595016,"89":-0.19685931503772736,"90":0.007391235325485468,"91":0.009250729344785213,"92":-0.09156665205955505,"93":-0.1218627318739891,"94":0.19522780179977417,"95":-0.1834060698747635,"96":-0.03421095758676529,"97":0.13068623840808868,"98":-0.12110192328691483,"99":-0.1149456575512886}},"39":{"bias":-0.02499902807176113,"weights":{"0":0.0382089801132679,"1":0.11863598972558975,"2":0.15785525739192963,"3":0.16363610327243805,"4":-0.021342406049370766,"5":0.19736675918102264,"6":-0.07288839668035507,"7":0.0685817152261734,"8":0.022785581648349762,"9":0.11189872026443481,"10":0.07783879339694977,"11":-0.16899429261684418,"12":0.032130587846040726,"13":0.17128901183605194,"14":-0.0027384611312299967,"15":-0.12191401422023773,"16":0.16354034841060638,"17":0.003157772356644273,"18":-0.03232475370168686,"19":-0.18966378271579742,"20":0.19339865446090698,"21":-0.004378884565085173,"22":0.008089086972177029,"23":0.02507360838353634,"24":0.028784532099962234,"25":0.06989207118749619,"26":-0.1519952267408371,"27":0.16429325938224792,"28":0.0834026113152504,"29":0.011404183693230152,"30":0.13463817536830902,"31":0.08623021841049194,"32":0.19969837367534637,"33":0.1768348664045334,"34":-0.17151111364364624,"35":0.04093382507562637,"36":0.17639105021953583,"37":-0.07094817608594894,"38":0.14367173612117767,"39":0.13509711623191833,"40":-0.17137831449508667,"41":0.08141908794641495,"42":-0.12906724214553833,"43":-0.15961095690727234,"44":-0.06194872781634331,"45":0.11118368804454803,"46":0.06828249990940094,"47":0.097084641456604,"48":0.11436104029417038,"49":0.012033381499350071,"50":-0.14629724621772766,"51":0.20071838796138763,"52":-0.12803882360458374,"53":-0.02060132846236229,"54":-0.00483301654458046,"55":-0.006399236153811216,"56":-0.09942895919084549,"57":-0.17850126326084137,"58":0.03935639560222626,"59":0.016805589199066162,"60":-0.11833353340625763,"61":-0.052495211362838745,"62":0.12421556562185287,"63":-0.10522381961345673,"64":-0.09601500630378723,"65":0.05215681716799736,"66":0.004511706065386534,"67":-0.020507361739873886,"68":-0.030659494921565056,"69":0.01460439432412386,"70":0.17362241446971893,"71":-0.17980122566223145,"72":-0.13522988557815552,"73":0.0712265819311142,"74":0.04324918985366821,"75":-0.14698892831802368,"76":0.07498139142990112,"77":0.19000490009784698,"78":0.11041555553674698,"79":0.13969412446022034,"80":-0.09149502962827682,"81":0.14357200264930725,"82":0.10153211653232574,"83":-0.06319395452737808,"84":0.10186415910720825,"85":0.030615977942943573,"86":-0.16496680676937103,"87":-0.03827641159296036,"88":0.04692373052239418,"89":-0.17068961262702942,"90":0.1875147819519043,"91":0.20699520409107208,"92":0.003168401774019003,"93":0.011360278353095055,"94":0.054365675896406174,"95":-0.13444967567920685,"96":-0.13419483602046967,"97":-0.12113160640001297,"98":0.12426766008138657,"99":-0.07834308594465256}},"40":{"bias":-0.06699071079492569,"weights":{"0":0.02941380813717842,"1":-0.08331681787967682,"2":0.17385129630565643,"3":-0.12582053244113922,"4":0.0771658793091774,"5":-0.08397047966718674,"6":0.18516220152378082,"7":0.08977468311786652,"8":-0.08403781056404114,"9":-0.0676560178399086,"10":0.18869002163410187,"11":0.028693601489067078,"12":-0.07055886834859848,"13":-0.06617787480354309,"14":-0.13150008022785187,"15":-0.18654660880565643,"16":-0.038858562707901,"17":-0.09400966018438339,"18":0.135812446475029,"19":0.10313300043344498,"20":0.1404729038476944,"21":0.025088312104344368,"22":-0.11302834004163742,"23":-0.15459342300891876,"24":-0.06362538039684296,"25":-0.03299826383590698,"26":0.11822506040334702,"27":-0.060076747089624405,"28":0.10255344957113266,"29":0.0005778976483270526,"30":0.19293956458568573,"31":-0.07505183666944504,"32":-0.1587982475757599,"33":-0.11827998608350754,"34":0.14266681671142578,"35":-0.10068342834711075,"36":0.12442756444215775,"37":-0.13484081625938416,"38":0.19485051929950714,"39":0.016332965344190598,"40":-0.028194937855005264,"41":-0.14492864906787872,"42":0.0233679860830307,"43":-0.16279996931552887,"44":-0.023196404799818993,"45":0.05901118367910385,"46":-0.09749191254377365,"47":-0.1499674767255783,"48":0.16323573887348175,"49":-0.020485391840338707,"50":-0.14006899297237396,"51":-0.180898055434227,"52":0.07659392803907394,"53":0.014680515043437481,"54":-0.07083167880773544,"55":-0.1784650683403015,"56":0.056487902998924255,"57":-0.03485406935214996,"58":0.11701302230358124,"59":-0.011510729789733887,"60":-0.138143852353096,"61":0.19078968465328217,"62":-0.012978880666196346,"63":0.17078807950019836,"64":-0.14392028748989105,"65":-0.07996106892824173,"66":-0.021843012422323227,"67":-0.18681426346302032,"68":-0.06551836431026459,"69":0.16280390322208405,"70":-0.052302077412605286,"71":-0.054642241448163986,"72":0.16813135147094727,"73":0.027726266533136368,"74":-0.06989017128944397,"75":-0.014762189239263535,"76":0.14481531083583832,"77":0.06999325007200241,"78":-0.1283877044916153,"79":0.05961088836193085,"80":0.009396549314260483,"81":-0.1175810694694519,"82":0.036317579448223114,"83":-0.1841314435005188,"84":-0.13938161730766296,"85":0.07844951003789902,"86":0.15669916570186615,"87":-0.13579505681991577,"88":-0.18443545699119568,"89":0.06445211172103882,"90":0.17912715673446655,"91":-0.02642487920820713,"92":0.10926397889852524,"93":-0.06715280562639236,"94":0.1845959573984146,"95":-0.1382206231355667,"96":-0.13758975267410278,"97":0.12581586837768555,"98":-0.024947786703705788,"99":0.10762158781290054}},"41":{"bias":0.17336256802082062,"weights":{"0":-0.0700046718120575,"1":0.14832499623298645,"2":-0.10655470192432404,"3":-0.12613847851753235,"4":-0.009410684928297997,"5":-0.07224828749895096,"6":0.06838393211364746,"7":-0.031127076596021652,"8":0.01883583515882492,"9":-0.17012858390808105,"10":-0.12147615849971771,"11":-0.04623059183359146,"12":0.17668281495571136,"13":-0.11433827877044678,"14":0.07096701115369797,"15":-0.15932832658290863,"16":0.16577361524105072,"17":-0.07435102760791779,"18":0.09105464816093445,"19":0.15317890048027039,"20":0.1902312934398651,"21":-0.07546722143888474,"22":0.15361516177654266,"23":0.07743874937295914,"24":-0.14653120934963226,"25":-0.018508078530430794,"26":0.1480790376663208,"27":0.1762162148952484,"28":-0.11340203881263733,"29":-0.15963594615459442,"30":-0.1676167994737625,"31":-0.14448127150535583,"32":-0.0916595533490181,"33":-0.010267642326653004,"34":0.17204336822032928,"35":0.2012498676776886,"36":0.1161305233836174,"37":0.13632650673389435,"38":-0.01530210580676794,"39":0.19363555312156677,"40":-0.18710748851299286,"41":-0.04699485003948212,"42":-0.10765784978866577,"43":-0.19903209805488586,"44":-0.08261540532112122,"45":-0.10860545933246613,"46":-0.08282016962766647,"47":0.1972833275794983,"48":-0.019703568890690804,"49":-0.13923035562038422,"50":-0.1171170026063919,"51":0.041718482971191406,"52":-0.11790482699871063,"53":-0.09279539436101913,"54":0.19500195980072021,"55":-0.11110005527734756,"56":-0.17627736926078796,"57":0.12848791480064392,"58":0.06860293447971344,"59":-0.007024029735475779,"60":-0.06777410209178925,"61":0.13156118988990784,"62":-0.13353802263736725,"63":0.14696721732616425,"64":-0.002328362548723817,"65":-0.1729516088962555,"66":-0.002208418445661664,"67":0.17723767459392548,"68":0.15491712093353271,"69":0.015369333326816559,"70":0.10336751490831375,"71":0.11936774849891663,"72":-0.10592599958181381,"73":-0.005637700203806162,"74":0.07757594436407089,"75":0.0422855019569397,"76":0.0750630795955658,"77":-0.008906272239983082,"78":-0.07583655416965485,"79":-0.07770901918411255,"80":-0.11739028990268707,"81":-0.05466816946864128,"82":-0.062389131635427475,"83":-0.023344557732343674,"84":-0.10620804876089096,"85":-0.18542282283306122,"86":-0.011835286393761635,"87":0.09075620025396347,"88":0.06042974069714546,"89":-0.13549086451530457,"90":0.190011128783226,"91":0.057307589799165726,"92":0.20032744109630585,"93":-0.14637167751789093,"94":0.06738868355751038,"95":-0.06013782322406769,"96":-0.14889301359653473,"97":0.08888524025678635,"98":-0.024851031601428986,"99":0.06429438292980194}},"42":{"bias":0.13927696645259857,"weights":{"0":-0.15188686549663544,"1":-0.014552553184330463,"2":0.1439283937215805,"3":0.11158265173435211,"4":-0.12262451648712158,"5":0.06560773402452469,"6":-0.012442121282219887,"7":0.011397944763302803,"8":0.04395071789622307,"9":0.14262834191322327,"10":0.02416384220123291,"11":0.1780928671360016,"12":0.16209325194358826,"13":-0.1881880909204483,"14":0.176448255777359,"15":0.16852077841758728,"16":0.11335796117782593,"17":0.04376135393977165,"18":0.177017480134964,"19":-0.041843391954898834,"20":0.02828257530927658,"21":0.14781056344509125,"22":-0.10732705891132355,"23":-0.07900851964950562,"24":-0.11596988141536713,"25":0.19916576147079468,"26":0.088465116918087,"27":0.07770195603370667,"28":0.06314752995967865,"29":0.004605687689036131,"30":-0.04806917533278465,"31":-0.07826481759548187,"32":0.1518884152173996,"33":-0.1754617691040039,"34":0.12366007268428802,"35":-0.04904937744140625,"36":-0.18396270275115967,"37":-0.1948656290769577,"38":-0.005117866210639477,"39":0.07871559262275696,"40":-0.04061538353562355,"41":-0.15086056292057037,"42":0.03136008232831955,"43":-0.01597941853106022,"44":-0.03819772228598595,"45":-0.07494235783815384,"46":-0.08294223994016647,"47":-0.02019326761364937,"48":0.08432156592607498,"49":-0.15206335484981537,"50":-0.13309310376644135,"51":-0.1772443950176239,"52":-0.12127722799777985,"53":0.14252740144729614,"54":0.15266354382038116,"55":0.09951583296060562,"56":-0.03669099509716034,"57":-0.07281381636857986,"58":-0.027761463075876236,"59":-0.028808383271098137,"60":-0.032662078738212585,"61":0.020673392340540886,"62":-0.1822282373905182,"63":0.2022734433412552,"64":0.13491825759410858,"65":-0.1180516853928566,"66":-0.08012021332979202,"67":0.00956785213202238,"68":-0.13180643320083618,"69":-0.12789110839366913,"70":-0.11367647349834442,"71":-0.18532542884349823,"72":-0.00040828154305927455,"73":0.13275407254695892,"74":-0.15124711394309998,"75":0.022522741928696632,"76":-0.1521725207567215,"77":0.17605358362197876,"78":-0.10756448656320572,"79":0.09071246534585953,"80":0.19864709675312042,"81":0.06050435081124306,"82":0.03945355489850044,"83":0.022530505433678627,"84":-0.06852065026760101,"85":0.08667899668216705,"86":0.19172538816928864,"87":-0.04870090261101723,"88":-0.04553620517253876,"89":0.14546158909797668,"90":-0.13467854261398315,"91":-0.1719163954257965,"92":-0.10033617168664932,"93":0.1578693985939026,"94":0.14587527513504028,"95":-0.04600921645760536,"96":0.11594994366168976,"97":-0.11658072471618652,"98":0.050725337117910385,"99":0.1271127611398697}},"43":{"bias":-0.01790734939277172,"weights":{"0":-0.1844255030155182,"1":0.03206366300582886,"2":-0.09971527010202408,"3":0.04164876043796539,"4":-0.1377585232257843,"5":0.07980035245418549,"6":-0.11161041259765625,"7":-0.19763663411140442,"8":-0.11493467539548874,"9":-0.08866717666387558,"10":-0.0794396847486496,"11":0.12740658223628998,"12":-0.07175994664430618,"13":-0.09715639799833298,"14":0.0015613053692504764,"15":-0.14037388563156128,"16":-0.034038543701171875,"17":-0.1716558039188385,"18":-0.19918668270111084,"19":0.13371533155441284,"20":0.1657017469406128,"21":-0.06593671441078186,"22":-0.13476894795894623,"23":-0.059068478643894196,"24":0.16262918710708618,"25":0.01217035111039877,"26":-0.1719430536031723,"27":0.057463232427835464,"28":0.1466841995716095,"29":-0.11339226365089417,"30":-0.17858153581619263,"31":-0.1599380522966385,"32":-0.10940390080213547,"33":-0.00035578900133259594,"34":-0.05694424733519554,"35":0.028156301006674767,"36":-0.10854049772024155,"37":0.10314767062664032,"38":0.12957093119621277,"39":-0.10079396516084671,"40":-0.10325530916452408,"41":-0.0817767083644867,"42":0.10087673366069794,"43":-0.1607489138841629,"44":-0.007832343690097332,"45":-0.1984163522720337,"46":0.042525514960289,"47":0.14093808829784393,"48":-0.1326744705438614,"49":-0.0069504729472100735,"50":-0.0014410422882065177,"51":-0.04940471053123474,"52":0.054001204669475555,"53":-0.004480825271457434,"54":-0.06695684045553207,"55":0.17351283133029938,"56":-0.02233256958425045,"57":0.14957647025585175,"58":0.008168689906597137,"59":-0.20026874542236328,"60":0.16201183199882507,"61":-0.07106272131204605,"62":-0.058253947645425797,"63":-0.18383504450321198,"64":-0.15887852013111115,"65":0.12243682891130447,"66":0.11227478086948395,"67":0.09802080690860748,"68":0.11500295251607895,"69":-0.1734909564256668,"70":0.052256837487220764,"71":0.13116204738616943,"72":0.09266801923513412,"73":-0.006670481991022825,"74":-0.16637231409549713,"75":-0.18122810125350952,"76":-0.13778947293758392,"77":0.1885521560907364,"78":-0.17286142706871033,"79":0.15327014029026031,"80":0.08959180861711502,"81":-0.06835462152957916,"82":0.09422047436237335,"83":0.09145554155111313,"84":0.03845605254173279,"85":0.012635772116482258,"86":-0.17587755620479584,"87":-0.17746101319789886,"88":0.08947207033634186,"89":0.020305979996919632,"90":-0.19258375465869904,"91":0.07181066274642944,"92":0.12891601026058197,"93":0.05385643243789673,"94":0.13733036816120148,"95":-0.0608915314078331,"96":-0.04533372446894646,"97":-0.022819627076387405,"98":-0.10941535979509354,"99":-0.03020671010017395}},"44":{"bias":0.14942821860313416,"weights":{"0":-0.08118372410535812,"1":0.1027059331536293,"2":0.027586806565523148,"3":0.02512265369296074,"4":0.03158044070005417,"5":0.17625856399536133,"6":0.16159357130527496,"7":-0.17551206052303314,"8":0.04232621192932129,"9":-0.175503209233284,"10":0.054480720311403275,"11":0.09696771204471588,"12":0.0655207559466362,"13":-0.12197735160589218,"14":0.0006714878254570067,"15":-0.019332587718963623,"16":0.16549710929393768,"17":-0.11500993371009827,"18":0.09300103783607483,"19":0.003384939394891262,"20":-0.07794317603111267,"21":-0.034603286534547806,"22":0.03212608024477959,"23":-0.05079661309719086,"24":-0.05913949012756348,"25":-0.08121486008167267,"26":-0.003758328268304467,"27":-0.16868484020233154,"28":-0.185933917760849,"29":0.018997404724359512,"30":0.09900538623332977,"31":0.12255879491567612,"32":0.01661960780620575,"33":0.15338574349880219,"34":0.06075714901089668,"35":0.15522679686546326,"36":-0.049357395619153976,"37":0.10423628985881805,"38":0.1453717052936554,"39":-0.1665593832731247,"40":0.028279077261686325,"41":-0.184027761220932,"42":0.005701523739844561,"43":-0.08978108316659927,"44":-0.16147983074188232,"45":-0.1798592358827591,"46":-0.1264759600162506,"47":0.19289849698543549,"48":-0.04348542168736458,"49":-0.12599840760231018,"50":0.1564192771911621,"51":0.13171499967575073,"52":0.007063083816319704,"53":-0.11786670237779617,"54":-0.023606646806001663,"55":-0.03456562012434006,"56":0.1857324242591858,"57":0.1875101774930954,"58":-0.18770138919353485,"59":0.010814082808792591,"60":0.0974305272102356,"61":-0.1429235190153122,"62":0.146114781498909,"63":0.05270848050713539,"64":-0.14553594589233398,"65":0.11354982852935791,"66":0.013589413836598396,"67":-0.15505675971508026,"68":0.16741086542606354,"69":0.052157409489154816,"70":-0.044802483171224594,"71":0.011235473677515984,"72":-0.10849876701831818,"73":0.12976542115211487,"74":0.04817184805870056,"75":-0.18329192698001862,"76":0.07145877182483673,"77":-0.0037053641863167286,"78":-0.1512877345085144,"79":-0.041363757103681564,"80":-0.13224120438098907,"81":-0.06591755896806717,"82":0.12094033509492874,"83":0.12724757194519043,"84":-0.08116429299116135,"85":-0.14442850649356842,"86":-0.013079257681965828,"87":-0.04209050163626671,"88":-0.12426694482564926,"89":0.19001369178295135,"90":0.010213769972324371,"91":0.03745083883404732,"92":0.1263633370399475,"93":-0.00656687468290329,"94":0.000533566577360034,"95":-0.03732288256287575,"96":-0.029345406219363213,"97":-0.18539275228977203,"98":0.08298211544752121,"99":-0.13045795261859894}},"45":{"bias":-0.02746475487947464,"weights":{"0":-0.009177290834486485,"1":0.052084069699048996,"2":0.015620537102222443,"3":0.12824931740760803,"4":-0.09385897219181061,"5":-0.015297455713152885,"6":-0.08770161122083664,"7":0.0503125824034214,"8":-0.1144644021987915,"9":-0.10423443466424942,"10":-0.15841937065124512,"11":-0.043176017701625824,"12":0.13173174858093262,"13":0.022216353565454483,"14":0.043799445033073425,"15":-0.10673711448907852,"16":0.00484044523909688,"17":-0.1300845444202423,"18":-0.1673092097043991,"19":-0.025188898667693138,"20":-0.06313959509134293,"21":0.15192194283008575,"22":0.11063084006309509,"23":0.1037931814789772,"24":0.19051593542099,"25":-0.1740284115076065,"26":-0.15386900305747986,"27":-0.15610067546367645,"28":0.1275324523448944,"29":0.060115404427051544,"30":-0.13362035155296326,"31":-0.05017244815826416,"32":0.08827855437994003,"33":-0.1631891280412674,"34":0.12286490947008133,"35":0.11435282230377197,"36":-0.1823534220457077,"37":0.041456736624240875,"38":-0.04796482250094414,"39":0.14624378085136414,"40":0.08738823980093002,"41":0.027007095515727997,"42":0.052931103855371475,"43":0.1653999537229538,"44":-0.14659534394741058,"45":-0.08200031518936157,"46":0.187437042593956,"47":-0.0012784019345417619,"48":-0.01758006028831005,"49":0.1682683676481247,"50":-0.12665265798568726,"51":0.1469137966632843,"52":0.10573885589838028,"53":0.19116030633449554,"54":-0.06342568248510361,"55":0.02671710029244423,"56":0.19438619911670685,"57":0.18153274059295654,"58":0.14579229056835175,"59":-0.05816258490085602,"60":-0.06352860480546951,"61":0.15616926550865173,"62":0.08154870569705963,"63":-0.03352026641368866,"64":0.09236040711402893,"65":0.09324359148740768,"66":0.05270005017518997,"67":-0.05090215057134628,"68":-0.1725514531135559,"69":0.0932878777384758,"70":-0.06270571053028107,"71":-0.008568634279072285,"72":-0.18158051371574402,"73":-0.18897931277751923,"74":-0.08678862452507019,"75":-0.04580887034535408,"76":-0.18202093243598938,"77":0.12726911902427673,"78":-0.1460779905319214,"79":0.16591084003448486,"80":-0.013077836483716965,"81":-0.12129271775484085,"82":-0.06589037925004959,"83":-0.14253485202789307,"84":-0.1134762242436409,"85":0.041214313358068466,"86":-0.041475120931863785,"87":0.015072286128997803,"88":-0.15134958922863007,"89":-0.07241127640008926,"90":0.14514462649822235,"91":-0.14086483418941498,"92":-0.11682432889938354,"93":0.11953265964984894,"94":-0.17003540694713593,"95":-0.17421934008598328,"96":-0.013092085719108582,"97":0.09057178348302841,"98":0.09530200064182281,"99":0.13881626725196838}},"46":{"bias":-0.17760342359542847,"weights":{"0":0.04846187308430672,"1":-0.11536451429128647,"2":-0.028107434511184692,"3":0.13210724294185638,"4":0.16629895567893982,"5":-0.17266583442687988,"6":-0.15948723256587982,"7":-0.08810437470674515,"8":0.08742048591375351,"9":-0.10882999747991562,"10":0.05042274668812752,"11":0.01428251899778843,"12":-0.09729192405939102,"13":0.09601979702711105,"14":0.19328664243221283,"15":0.08188125491142273,"16":0.05024644732475281,"17":0.13406619429588318,"18":-0.07559002935886383,"19":-0.06423671543598175,"20":0.1728709489107132,"21":-0.08004804700613022,"22":-0.11539571732282639,"23":0.016103655099868774,"24":-0.14148974418640137,"25":-0.18392051756381989,"26":0.021998591721057892,"27":0.08755964785814285,"28":-0.1904023438692093,"29":-0.15962770581245422,"30":0.1954755336046219,"31":0.0091008972376585,"32":-0.15901294350624084,"33":0.15958279371261597,"34":0.15668106079101562,"35":-0.035386230796575546,"36":0.12890933454036713,"37":-0.13854587078094482,"38":0.12409815937280655,"39":0.1361132115125656,"40":0.19541621208190918,"41":-0.011413438245654106,"42":-0.14010298252105713,"43":0.062076374888420105,"44":0.17383185029029846,"45":0.06906938552856445,"46":-0.07357531785964966,"47":-0.19504274427890778,"48":-0.044246312230825424,"49":-0.13011571764945984,"50":-0.126238614320755,"51":0.08559425175189972,"52":0.006340149324387312,"53":-0.03351070359349251,"54":-0.1357499063014984,"55":0.007313304115086794,"56":0.004331255331635475,"57":-0.11052264273166656,"58":-0.19507719576358795,"59":0.012482207268476486,"60":0.04471726343035698,"61":0.04854604974389076,"62":-0.0913076400756836,"63":0.11732695996761322,"64":0.011561497114598751,"65":0.0381769984960556,"66":0.1527862846851349,"67":0.1288655698299408,"68":0.11073046177625656,"69":-0.004999584052711725,"70":-0.07786154001951218,"71":0.006196242291480303,"72":0.05224587023258209,"73":-0.15783438086509705,"74":0.15387487411499023,"75":0.1803528070449829,"76":0.06763952225446701,"77":0.10851643979549408,"78":0.10709088295698166,"79":0.1761961132287979,"80":-0.13227105140686035,"81":-0.04192022606730461,"82":0.14150415360927582,"83":-0.09879019111394882,"84":-0.049762070178985596,"85":-0.18070800602436066,"86":-0.010670611634850502,"87":-0.19496993720531464,"88":-0.009915653616189957,"89":0.13007083535194397,"90":-0.07586412131786346,"91":-0.06304305046796799,"92":-0.12531015276908875,"93":-0.056796733289957047,"94":-0.009008463472127914,"95":-0.056599680334329605,"96":0.10026547312736511,"97":-0.05271829292178154,"98":0.1025349572300911,"99":0.17231938242912292}},"47":{"bias":-0.16689008474349976,"weights":{"0":0.15813541412353516,"1":0.17849740386009216,"2":-0.11807916313409805,"3":-0.0687883049249649,"4":0.10896297544240952,"5":0.1904805302619934,"6":0.16016945242881775,"7":-0.11032663285732269,"8":-0.15196393430233002,"9":-0.14486749470233917,"10":-0.1154853105545044,"11":0.13436579704284668,"12":-0.13842786848545074,"13":0.16198888421058655,"14":-0.03791302070021629,"15":-0.11428118497133255,"16":0.013355718925595284,"17":0.1592712253332138,"18":0.12659242749214172,"19":0.019545359537005424,"20":-0.15602441132068634,"21":-0.08192528039216995,"22":-0.10629791021347046,"23":-0.059627633541822433,"24":0.0637071505188942,"25":-0.13204346597194672,"26":-0.19499629735946655,"27":0.16090738773345947,"28":0.12746873497962952,"29":-0.13977158069610596,"30":-0.10065522789955139,"31":-0.07513708621263504,"32":-0.18716859817504883,"33":0.06907961517572403,"34":0.09886880218982697,"35":-0.1158759817481041,"36":0.14274786412715912,"37":0.11371797323226929,"38":-0.046882182359695435,"39":-0.05497586727142334,"40":-0.12606219947338104,"41":-0.03810757398605347,"42":-0.17891518771648407,"43":-0.0713428258895874,"44":-0.039142247289419174,"45":-0.08229055255651474,"46":0.02024843730032444,"47":0.022550420835614204,"48":0.16721460223197937,"49":-0.10415468364953995,"50":-0.11682683974504471,"51":-0.14434494078159332,"52":0.15467770397663116,"53":0.09083373844623566,"54":-0.12654979526996613,"55":-0.16188490390777588,"56":0.023637870326638222,"57":-0.03239378705620766,"58":0.1550566405057907,"59":0.20046688616275787,"60":-0.03822925314307213,"61":0.17323243618011475,"62":-0.05463162064552307,"63":-0.10358718782663345,"64":0.11978931725025177,"65":0.16865654289722443,"66":0.05392076447606087,"67":-0.03195221722126007,"68":0.06672892719507217,"69":-0.0058826575987041,"70":-0.011780361644923687,"71":0.02266191877424717,"72":-0.018457090482115746,"73":-0.18733365833759308,"74":-0.08918455988168716,"75":0.07176066190004349,"76":-0.10617358237504959,"77":-0.1830882877111435,"78":-0.16748689115047455,"79":0.19007965922355652,"80":0.14260604977607727,"81":0.18740728497505188,"82":-0.11248636990785599,"83":-0.16660960018634796,"84":0.038672562688589096,"85":0.018469762057065964,"86":0.1981811225414276,"87":-0.18864165246486664,"88":-0.18980959057807922,"89":0.14360742270946503,"90":-0.01309592928737402,"91":-0.008395163342356682,"92":-0.14788369834423065,"93":0.11554698646068573,"94":-0.09446438401937485,"95":-0.09974315762519836,"96":0.06668984144926071,"97":-0.18172289431095123,"98":-0.14368215203285217,"99":0.15600423514842987}},"48":{"bias":-0.1723882108926773,"weights":{"0":-0.05007360130548477,"1":-0.10697468370199203,"2":-0.0733642503619194,"3":-0.08784212172031403,"4":-0.14716027677059174,"5":0.18663717806339264,"6":0.17994463443756104,"7":0.13957911729812622,"8":0.016781508922576904,"9":0.0010693874210119247,"10":0.1222868487238884,"11":0.01265542209148407,"12":0.1698119342327118,"13":-0.002118527889251709,"14":-0.10377714037895203,"15":-0.03930792585015297,"16":-0.17109043896198273,"17":-0.11543383449316025,"18":-0.19433468580245972,"19":-0.0792120024561882,"20":-0.004198687616735697,"21":0.17651496827602386,"22":0.0804980918765068,"23":-0.01393426675349474,"24":0.05982986092567444,"25":-0.08751028031110764,"26":0.10420973598957062,"27":-0.0922158882021904,"28":-0.09089700132608414,"29":-0.03764903172850609,"30":-0.1482301503419876,"31":-0.1212059035897255,"32":0.2000381499528885,"33":0.08964978158473969,"34":-0.019152337685227394,"35":0.11110837757587433,"36":-0.12608417868614197,"37":-0.10100123286247253,"38":-0.010309059172868729,"39":0.1052299439907074,"40":0.10622967779636383,"41":-0.07808653265237808,"42":-0.05930734798312187,"43":0.011471998877823353,"44":-0.13824081420898438,"45":-0.035133954137563705,"46":-0.05958591029047966,"47":-0.1908663958311081,"48":-0.17959901690483093,"49":0.11093175411224365,"50":-0.1568436622619629,"51":0.07171808928251266,"52":-0.027239341288805008,"53":-0.13740766048431396,"54":0.12250436842441559,"55":0.16151198744773865,"56":-0.1923290491104126,"57":0.18639081716537476,"58":-0.12266043573617935,"59":0.04983660951256752,"60":-0.044097598642110825,"61":0.18753889203071594,"62":0.11973533779382706,"63":0.11989497393369675,"64":-0.11955396085977554,"65":0.16917046904563904,"66":0.1990484595298767,"67":-0.09616106748580933,"68":-0.03427966684103012,"69":-0.1404344141483307,"70":-0.0008012161124497652,"71":0.1441071629524231,"72":0.09850239753723145,"73":0.13845020532608032,"74":-0.10213509947061539,"75":-0.06357988715171814,"76":-0.09384600818157196,"77":-0.01084192469716072,"78":-0.1375970095396042,"79":0.0628785565495491,"80":0.009795665740966797,"81":-0.1218993216753006,"82":0.15077616274356842,"83":-0.023993875831365585,"84":0.021232586354017258,"85":0.19149109721183777,"86":-0.13685496151447296,"87":-0.12344155460596085,"88":0.09232109785079956,"89":-0.032728876918554306,"90":0.022516226395964622,"91":-0.14105647802352905,"92":0.07070422917604446,"93":-0.14399370551109314,"94":-0.13160917162895203,"95":-0.07153897732496262,"96":-0.020132243633270264,"97":-0.06858637928962708,"98":0.08228703588247299,"99":0.0436963252723217}},"49":{"bias":-0.02298891358077526,"weights":{"0":-0.06661540269851685,"1":-0.04962633550167084,"2":-0.0016092936275526881,"3":0.1433667540550232,"4":0.127616286277771,"5":0.09480515867471695,"6":-0.05772516876459122,"7":0.02874995768070221,"8":-0.15833652019500732,"9":0.0655231699347496,"10":-0.19204944372177124,"11":-0.018296044319868088,"12":-0.12107222527265549,"13":-0.061685711145401,"14":0.10164228826761246,"15":-0.03023267537355423,"16":0.18717895448207855,"17":-0.07976773381233215,"18":-0.022462600842118263,"19":0.18146896362304688,"20":-0.18587595224380493,"21":-0.030774405226111412,"22":0.137440487742424,"23":-0.026816826313734055,"24":0.03660711273550987,"25":-0.17330493032932281,"26":0.1087585911154747,"27":-0.13913045823574066,"28":-0.013315080665051937,"29":-0.1985543817281723,"30":0.1501999944448471,"31":0.15783055126667023,"32":0.12417852133512497,"33":-0.08791077882051468,"34":-0.1953667849302292,"35":-0.13100826740264893,"36":0.19892659783363342,"37":0.17953795194625854,"38":-0.15407197177410126,"39":-0.01050725020468235,"40":0.18773716688156128,"41":-0.16655845940113068,"42":-0.13143542408943176,"43":-0.05123016610741615,"44":-0.08737336099147797,"45":0.09258799254894257,"46":-0.12200970947742462,"47":0.027968524023890495,"48":0.08466784656047821,"49":0.09449558705091476,"50":-0.06491290777921677,"51":-0.07589393854141235,"52":-0.004997566342353821,"53":-0.015264389105141163,"54":-0.11390399932861328,"55":0.09855753928422928,"56":0.03221705183386803,"57":0.1554148942232132,"58":-0.05743539333343506,"59":-0.0004922699881717563,"60":0.0793677493929863,"61":0.018777333199977875,"62":-0.20111173391342163,"63":0.15510714054107666,"64":0.09933645278215408,"65":-0.08698461949825287,"66":0.10463011264801025,"67":0.04578237235546112,"68":-0.06249524652957916,"69":-0.1276765614748001,"70":-0.20295368134975433,"71":-0.09091070294380188,"72":-0.14194810390472412,"73":-0.06687641143798828,"74":-0.1380145102739334,"75":-0.061962489038705826,"76":0.06936311721801758,"77":-0.05646923929452896,"78":0.17503462731838226,"79":-0.11659704893827438,"80":0.12421920895576477,"81":-0.10074766725301743,"82":-0.06498817354440689,"83":0.12103138118982315,"84":0.04132244363427162,"85":0.1616438776254654,"86":0.11651330441236496,"87":-0.07963728159666061,"88":0.0791023001074791,"89":0.18962764739990234,"90":-0.03382083401083946,"91":0.02339576743543148,"92":0.193568617105484,"93":0.01526537723839283,"94":-0.04067753255367279,"95":0.008574715815484524,"96":-0.019582122564315796,"97":0.07091978937387466,"98":0.008876673877239227,"99":-0.18025490641593933}}},{"0":{"bias":0.08869484066963196,"weights":{"0":-0.14149267971515656,"1":-0.13492858409881592,"2":0.05456921458244324,"3":-0.13716933131217957,"4":0.022147556766867638,"5":-0.03665861487388611,"6":0.06637018173933029,"7":0.1757829189300537,"8":0.1760585606098175,"9":0.1840917319059372,"10":-0.1363067477941513,"11":0.029675358906388283,"12":0.1855589896440506,"13":-0.1847190260887146,"14":-0.1611170917749405,"15":-0.09861600399017334,"16":0.08548562228679657,"17":-0.13278503715991974,"18":-0.03560821712017059,"19":-0.05259779468178749,"20":-0.15662328898906708,"21":-0.04363671690225601,"22":-0.14218005537986755,"23":0.12698902189731598,"24":-0.1586039513349533,"25":-0.16982996463775635,"26":-0.054702095687389374,"27":-0.1855233609676361,"28":-0.11087667942047119,"29":-0.08610159903764725,"30":-0.025565965101122856,"31":-0.17320846021175385,"32":0.06146570295095444,"33":0.12853431701660156,"34":-0.16118581593036652,"35":0.013308675028383732,"36":0.09303423762321472,"37":0.10591749846935272,"38":0.15788054466247559,"39":0.029800791293382645,"40":0.044440679252147675,"41":0.08841584622859955,"42":-0.14197476208209991,"43":0.0025495444424450397,"44":-0.03815435618162155,"45":-0.17489363253116608,"46":-0.0058875177055597305,"47":-0.09450244903564453,"48":-0.1139865517616272,"49":0.1906466782093048}},"1":{"bias":0.09191624075174332,"weights":{"0":0.10276973992586136,"1":0.18586795032024384,"2":0.1249808594584465,"3":0.12200865894556046,"4":0.1543661504983902,"5":-0.08498872816562653,"6":-0.06596405059099197,"7":0.05822087451815605,"8":-0.15925106406211853,"9":0.030973706394433975,"10":-0.16215631365776062,"11":-0.18481238186359406,"12":0.030408218502998352,"13":0.10350101441144943,"14":0.10775990039110184,"15":0.10668883472681046,"16":-0.10452587902545929,"17":-0.002705163322389126,"18":-0.14415709674358368,"19":0.1656634360551834,"20":0.014680884778499603,"21":-0.16140884160995483,"22":-0.03324839472770691,"23":0.039743538945913315,"24":0.16116967797279358,"25":0.1335672289133072,"26":0.04058975353837013,"27":-0.15734674036502838,"28":-0.1769726276397705,"29":-0.08324075490236282,"30":0.06792319566011429,"31":0.040232639759778976,"32":-0.14320231974124908,"33":0.005260311532765627,"34":-0.11668819934129715,"35":-0.11549009382724762,"36":-0.1521115005016327,"37":-0.06407681852579117,"38":0.05487348139286041,"39":-0.1773819923400879,"40":0.16364769637584686,"41":-0.13992585241794586,"42":-0.13767115771770477,"43":0.07658855617046356,"44":-0.1449751853942871,"45":-0.09119795262813568,"46":0.11158747225999832,"47":0.10218841582536697,"48":-0.10633198171854019,"49":-0.0628693476319313}},"2":{"bias":0.13181836903095245,"weights":{"0":-0.020565226674079895,"1":0.049447331577539444,"2":0.14648254215717316,"3":0.011701175011694431,"4":0.12085649371147156,"5":-0.11986446380615234,"6":0.09702988713979721,"7":0.1797621101140976,"8":0.08175163716077805,"9":-0.11331861466169357,"10":-0.13741792738437653,"11":0.20393826067447662,"12":-0.11061947792768478,"13":-0.026633981615304947,"14":-0.03121877647936344,"15":0.12332197278738022,"16":-0.024949854239821434,"17":0.03538721427321434,"18":0.06500808894634247,"19":0.07534494996070862,"20":0.19623684883117676,"21":0.08617361634969711,"22":0.043547019362449646,"23":-0.022543558850884438,"24":-0.08189532905817032,"25":-0.005059829447418451,"26":-0.15866394340991974,"27":-0.045871492475271225,"28":-0.045770447701215744,"29":-0.13847194612026215,"30":-0.04533256217837334,"31":-0.15326127409934998,"32":0.060116712003946304,"33":0.044920895248651505,"34":-0.1416061967611313,"35":-0.14266158640384674,"36":0.0747319906949997,"37":-0.10510828346014023,"38":0.02607552893459797,"39":0.1596418023109436,"40":0.03795788809657097,"41":0.18728424608707428,"42":0.1544273942708969,"43":0.010925809852778912,"44":0.07340522855520248,"45":0.1271616816520691,"46":-0.016781531274318695,"47":0.08110853284597397,"48":0.03624463453888893,"49":-0.10351572930812836}}}],"outputLookup":false,"inputLookup":true,"activation":"tanh","trainOpts":{"iterations":200,"errorThresh":0.05,"log":false,"logPeriod":1000,"learningRate":0.0003,"momentum":0.0001,"callbackPeriod":10000,"timeout":10000,"beta1":0.9,"beta2":0.999,"epsilon":1e-8}}